const unsigned char tiny_cnn_model_big_tflite[] = {
  0x20, 0x00, 0x00, 0x00, 0x54, 0x46, 0x4c, 0x33, 0x00, 0x00, 0x00, 0x00,
  0x14, 0x00, 0x20, 0x00, 0x1c, 0x00, 0x18, 0x00, 0x14, 0x00, 0x10, 0x00,
  0x0c, 0x00, 0x00, 0x00, 0x08, 0x00, 0x04, 0x00, 0x14, 0x00, 0x00, 0x00,
  0x1c, 0x00, 0x00, 0x00, 0x8c, 0x00, 0x00, 0x00, 0x0c, 0x01, 0x00, 0x00,
  0x18, 0x16, 0x00, 0x00, 0x28, 0x16, 0x00, 0x00, 0x24, 0x29, 0x00, 0x00,
  0x03, 0x00, 0x00, 0x00, 0x01, 0x00, 0x00, 0x00, 0x04, 0x00, 0x00, 0x00,
  0x7e, 0xe9, 0xff, 0xff, 0x0c, 0x00, 0x00, 0x00, 0x1c, 0x00, 0x00, 0x00,
  0x3c, 0x00, 0x00, 0x00, 0x0f, 0x00, 0x00, 0x00, 0x73, 0x65, 0x72, 0x76,
  0x69, 0x6e, 0x67, 0x5f, 0x64, 0x65, 0x66, 0x61, 0x75, 0x6c, 0x74, 0x00,
  0x01, 0x00, 0x00, 0x00, 0x04, 0x00, 0x00, 0x00, 0x68, 0xff, 0xff, 0xff,
  0x14, 0x00, 0x00, 0x00, 0x04, 0x00, 0x00, 0x00, 0x08, 0x00, 0x00, 0x00,
  0x6f, 0x75, 0x74, 0x70, 0x75, 0x74, 0x5f, 0x30, 0x00, 0x00, 0x00, 0x00,
  0x01, 0x00, 0x00, 0x00, 0x04, 0x00, 0x00, 0x00, 0x8a, 0xe9, 0xff, 0xff,
  0x04, 0x00, 0x00, 0x00, 0x0c, 0x00, 0x00, 0x00, 0x6b, 0x65, 0x72, 0x61,
  0x73, 0x5f, 0x74, 0x65, 0x6e, 0x73, 0x6f, 0x72, 0x00, 0x00, 0x00, 0x00,
  0x03, 0x00, 0x00, 0x00, 0x5c, 0x00, 0x00, 0x00, 0x2c, 0x00, 0x00, 0x00,
  0x04, 0x00, 0x00, 0x00, 0xb8, 0xff, 0xff, 0xff, 0x18, 0x00, 0x00, 0x00,
  0x04, 0x00, 0x00, 0x00, 0x13, 0x00, 0x00, 0x00, 0x43, 0x4f, 0x4e, 0x56,
  0x45, 0x52, 0x53, 0x49, 0x4f, 0x4e, 0x5f, 0x4d, 0x45, 0x54, 0x41, 0x44,
  0x41, 0x54, 0x41, 0x00, 0xdc, 0xff, 0xff, 0xff, 0x17, 0x00, 0x00, 0x00,
  0x04, 0x00, 0x00, 0x00, 0x13, 0x00, 0x00, 0x00, 0x6d, 0x69, 0x6e, 0x5f,
  0x72, 0x75, 0x6e, 0x74, 0x69, 0x6d, 0x65, 0x5f, 0x76, 0x65, 0x72, 0x73,
  0x69, 0x6f, 0x6e, 0x00, 0x08, 0x00, 0x0c, 0x00, 0x08, 0x00, 0x04, 0x00,
  0x08, 0x00, 0x00, 0x00, 0x16, 0x00, 0x00, 0x00, 0x04, 0x00, 0x00, 0x00,
  0x13, 0x00, 0x00, 0x00, 0x6d, 0x69, 0x6e, 0x5f, 0x72, 0x75, 0x6e, 0x74,
  0x69, 0x6d, 0x65, 0x5f, 0x76, 0x65, 0x72, 0x73, 0x69, 0x6f, 0x6e, 0x00,
  0x19, 0x00, 0x00, 0x00, 0x08, 0x15, 0x00, 0x00, 0x00, 0x15, 0x00, 0x00,
  0xe8, 0x14, 0x00, 0x00, 0xcc, 0x14, 0x00, 0x00, 0x74, 0x14, 0x00, 0x00,
  0x04, 0x14, 0x00, 0x00, 0x74, 0x06, 0x00, 0x00, 0x24, 0x06, 0x00, 0x00,
  0x94, 0x01, 0x00, 0x00, 0x64, 0x01, 0x00, 0x00, 0x0c, 0x01, 0x00, 0x00,
  0x04, 0x01, 0x00, 0x00, 0xfc, 0x00, 0x00, 0x00, 0xf4, 0x00, 0x00, 0x00,
  0xec, 0x00, 0x00, 0x00, 0xe4, 0x00, 0x00, 0x00, 0xdc, 0x00, 0x00, 0x00,
  0xd4, 0x00, 0x00, 0x00, 0xcc, 0x00, 0x00, 0x00, 0xc4, 0x00, 0x00, 0x00,
  0xbc, 0x00, 0x00, 0x00, 0xb4, 0x00, 0x00, 0x00, 0x94, 0x00, 0x00, 0x00,
  0x74, 0x00, 0x00, 0x00, 0x04, 0x00, 0x00, 0x00, 0x92, 0xea, 0xff, 0xff,
  0x04, 0x00, 0x00, 0x00, 0x60, 0x00, 0x00, 0x00, 0x0c, 0x00, 0x00, 0x00,
  0x08, 0x00, 0x0e, 0x00, 0x08, 0x00, 0x04, 0x00, 0x08, 0x00, 0x00, 0x00,
  0x10, 0x00, 0x00, 0x00, 0x28, 0x00, 0x00, 0x00, 0x00, 0x00, 0x06, 0x00,
  0x08, 0x00, 0x04, 0x00, 0x06, 0x00, 0x00, 0x00, 0x04, 0x00, 0x00, 0x00,
  0x01, 0x00, 0x00, 0x00, 0xeb, 0x03, 0x00, 0x00, 0x0c, 0x00, 0x18, 0x00,
  0x14, 0x00, 0x10, 0x00, 0x0c, 0x00, 0x04, 0x00, 0x0c, 0x00, 0x00, 0x00,
  0x45, 0x8a, 0x1e, 0x96, 0x09, 0x23, 0xa0, 0x4d, 0x02, 0x00, 0x00, 0x00,
  0x02, 0x00, 0x00, 0x00, 0x04, 0x00, 0x00, 0x00, 0x06, 0x00, 0x00, 0x00,
  0x32, 0x2e, 0x31, 0x39, 0x2e, 0x30, 0x00, 0x00, 0xfe, 0xea, 0xff, 0xff,
  0x04, 0x00, 0x00, 0x00, 0x10, 0x00, 0x00, 0x00, 0x00, 0x00, 0x00, 0x00,
  0x00, 0x00, 0x00, 0x00, 0x00, 0x00, 0x00, 0x00, 0x00, 0x00, 0x00, 0x00,
  0x1a, 0xeb, 0xff, 0xff, 0x04, 0x00, 0x00, 0x00, 0x10, 0x00, 0x00, 0x00,
  0x31, 0x2e, 0x31, 0x34, 0x2e, 0x30, 0x00, 0x00, 0x00, 0x00, 0x00, 0x00,
  0x00, 0x00, 0x00, 0x00, 0x28, 0xd9, 0xff, 0xff, 0x2c, 0xd9, 0xff, 0xff,
  0x30, 0xd9, 0xff, 0xff, 0x34, 0xd9, 0xff, 0xff, 0x38, 0xd9, 0xff, 0xff,
  0x3c, 0xd9, 0xff, 0xff, 0x40, 0xd9, 0xff, 0xff, 0x44, 0xd9, 0xff, 0xff,
  0x48, 0xd9, 0xff, 0xff, 0x4c, 0xd9, 0xff, 0xff, 0x50, 0xd9, 0xff, 0xff,
  0x62, 0xeb, 0xff, 0xff, 0x04, 0x00, 0x00, 0x00, 0x48, 0x00, 0x00, 0x00,
  0x31, 0x10, 0xaa, 0x10, 0x10, 0x81, 0x4d, 0xe2, 0xa0, 0x08, 0xab, 0xd3,
  0x6e, 0x35, 0xda, 0x26, 0x7f, 0xd0, 0x81, 0x59, 0xe0, 0xb0, 0x47, 0xf0,
  0xfb, 0x5c, 0x00, 0x43, 0x73, 0x7f, 0x46, 0x0e, 0x57, 0x2b, 0x68, 0x50,
  0x6d, 0x7f, 0xe1, 0x54, 0x64, 0x67, 0x24, 0xde, 0x19, 0xeb, 0x2f, 0x7f,
  0x44, 0x95, 0x07, 0x87, 0xaa, 0x5a, 0x46, 0x36, 0xa8, 0x20, 0xed, 0xb1,
  0x1d, 0xf0, 0x81, 0x87, 0xc9, 0x90, 0x81, 0xcd, 0xa3, 0x88, 0x00, 0x99,
  0xb6, 0xeb, 0xff, 0xff, 0x04, 0x00, 0x00, 0x00, 0x20, 0x00, 0x00, 0x00,
  0x06, 0x02, 0x00, 0x00, 0xc7, 0xfe, 0xff, 0xff, 0x13, 0x01, 0x00, 0x00,
  0xf0, 0xfe, 0xff, 0xff, 0xd2, 0xff, 0xff, 0xff, 0xa2, 0x0f, 0x00, 0x00,
  0xef, 0xfe, 0xff, 0xff, 0xfa, 0xfc, 0xff, 0xff, 0xe2, 0xeb, 0xff, 0xff,
  0x04, 0x00, 0x00, 0x00, 0x80, 0x04, 0x00, 0x00, 0xd8, 0x16, 0x02, 0xa5,
  0xbf, 0xfd, 0x22, 0xfc, 0x36, 0x83, 0xf4, 0xdc, 0xc4, 0x67, 0xc9, 0x2e,
  0x09, 0xf2, 0x58, 0x21, 0x14, 0x41, 0xc8, 0x0b, 0xc4, 0x05, 0x0a, 0xc3,
  0x84, 0xf9, 0xfd, 0x00, 0x2c, 0xa2, 0xdd, 0xe1, 0xdf, 0xeb, 0xf8, 0xf5,
  0x30, 0x40, 0x7f, 0x39, 0x28, 0xd2, 0x11, 0xbd, 0x4e, 0x71, 0x32, 0xf0,
  0x26, 0xc8, 0x96, 0xb8, 0x05, 0x6c, 0x33, 0xe9, 0xaf, 0x1b, 0xaa, 0xe8,
  0x09, 0x15, 0x48, 0xda, 0x44, 0xfe, 0x9a, 0xca, 0x3c, 0x1c, 0xfb, 0x99,
  0xfd, 0xbe, 0x60, 0x15, 0xab, 0xa3, 0x81, 0xb8, 0xf2, 0xc1, 0x1a, 0x28,
  0x1c, 0x04, 0x66, 0x34, 0xff, 0x07, 0xd7, 0x49, 0x6a, 0x3b, 0xc1, 0xe9,
  0x0a, 0x2e, 0x17, 0x26, 0xfc, 0xa4, 0xb6, 0xc5, 0x8d, 0x44, 0x8e, 0x16,
  0xed, 0x18, 0x6c, 0xf6, 0x0d, 0x09, 0x87, 0x01, 0x65, 0x3c, 0x2b, 0x35,
  0xe2, 0xd3, 0x0a, 0xe6, 0x11, 0xe8, 0xce, 0x42, 0xd2, 0x3a, 0x86, 0xf4,
  0xd8, 0x2f, 0x7a, 0x1a, 0x54, 0x3c, 0xf9, 0xf8, 0xc9, 0xfd, 0x04, 0xde,
  0xfc, 0xd0, 0x9f, 0xd6, 0xfe, 0x14, 0xf0, 0x14, 0x20, 0xb6, 0xa1, 0xeb,
  0xd5, 0x0b, 0xe8, 0xda, 0x2d, 0x19, 0xc1, 0xdc, 0xda, 0x4e, 0x1d, 0x39,
  0xf3, 0x10, 0xec, 0xcf, 0xf8, 0x3c, 0x20, 0x3b, 0x2b, 0x13, 0xd6, 0x1b,
  0xc5, 0x03, 0x29, 0x3f, 0xfb, 0x20, 0x81, 0x1d, 0xc7, 0xe2, 0xe6, 0x0e,
  0x36, 0xf0, 0x14, 0xef, 0xe1, 0x1b, 0x12, 0x2f, 0x0c, 0x18, 0xfb, 0xd8,
  0x9e, 0xf1, 0x15, 0xea, 0xdf, 0x23, 0xad, 0x08, 0xd4, 0xb7, 0x0b, 0xfe,
  0xa4, 0x1f, 0xda, 0x10, 0xfa, 0x40, 0x57, 0xde, 0x0c, 0x1d, 0x25, 0xf1,
  0x44, 0x2f, 0x16, 0x13, 0xdb, 0xfa, 0x7f, 0x21, 0x10, 0xc7, 0x1d, 0xd1,
  0xb8, 0x20, 0xc4, 0x07, 0xf8, 0x5a, 0x56, 0x4a, 0x2c, 0xcf, 0x0a, 0xec,
  0x6d, 0x60, 0xef, 0x10, 0x1b, 0xca, 0x58, 0xf4, 0xd3, 0xba, 0xed, 0xf0,
  0xd0, 0x13, 0x8d, 0x2c, 0x25, 0xfa, 0x6f, 0x1e, 0x14, 0x17, 0x37, 0x11,
  0x72, 0x3e, 0x1d, 0xe5, 0xeb, 0xe1, 0x6a, 0xf5, 0xd5, 0xe8, 0x28, 0x01,
  0xf4, 0x0c, 0xad, 0x0c, 0x2e, 0xef, 0x66, 0x13, 0x0d, 0x1d, 0x35, 0xf1,
  0x24, 0xf8, 0xed, 0xff, 0xe4, 0xcb, 0x22, 0x19, 0xb5, 0xe8, 0x20, 0xf4,
  0x08, 0x01, 0xc4, 0x02, 0x1a, 0x25, 0x3b, 0x26, 0x1f, 0x0a, 0x4d, 0x14,
  0x2c, 0x05, 0xec, 0xe8, 0xeb, 0xde, 0x31, 0xeb, 0xb5, 0xe2, 0x06, 0xda,
  0xee, 0xd0, 0x81, 0x0e, 0x49, 0x2a, 0x5f, 0xf8, 0x23, 0xed, 0x30, 0xf1,
  0x3b, 0x0d, 0xdc, 0xf6, 0xfa, 0xd8, 0x43, 0xe5, 0xe2, 0x1f, 0x3e, 0xed,
  0xef, 0xfd, 0xdd, 0xf7, 0xcb, 0xed, 0x56, 0xd4, 0xd6, 0x12, 0xec, 0xfd,
  0xf0, 0x20, 0x07, 0xe7, 0xd9, 0x11, 0x10, 0xfb, 0xf4, 0xfa, 0x16, 0xd7,
  0xf0, 0x0a, 0xe4, 0x11, 0xc0, 0xeb, 0x7f, 0x3b, 0x18, 0x49, 0xbe, 0xf8,
  0x47, 0x34, 0x1e, 0x25, 0x37, 0xe1, 0xf1, 0x0c, 0xbb, 0x0a, 0x1c, 0x0f,
  0x0c, 0xeb, 0xb4, 0x0e, 0xb7, 0x26, 0x57, 0xf2, 0x31, 0x39, 0xcc, 0xf4,
  0x1d, 0x36, 0x5c, 0xe7, 0x00, 0x28, 0x3b, 0x1e, 0x6e, 0x44, 0x27, 0x3d,
  0xf3, 0xe7, 0x4a, 0xff, 0x60, 0xfd, 0x81, 0xdd, 0x03, 0x0d, 0x42, 0xf2,
  0x00, 0x99, 0xc4, 0xac, 0xd0, 0x34, 0x00, 0x40, 0x60, 0x4d, 0x15, 0x28,
  0xcd, 0xe1, 0x24, 0x32, 0x6a, 0x03, 0xdb, 0x10, 0xff, 0x1c, 0x64, 0xcb,
  0x15, 0xc9, 0xd3, 0x9c, 0xc0, 0x19, 0x11, 0xf3, 0x6d, 0x05, 0x49, 0xfb,
  0x36, 0xfc, 0x4b, 0xe3, 0x78, 0xef, 0xee, 0x2d, 0x0e, 0x16, 0x40, 0x08,
  0x30, 0xbe, 0xf1, 0xcb, 0x84, 0xf8, 0x03, 0x0c, 0xc5, 0xf9, 0xc1, 0x31,
  0xdb, 0x94, 0x08, 0x06, 0xd0, 0x14, 0xc6, 0xfd, 0xe6, 0xcd, 0xd6, 0x11,
  0x8f, 0x12, 0xd6, 0x2c, 0x11, 0xdf, 0xb6, 0xfe, 0xc9, 0xee, 0xd0, 0x35,
  0x41, 0xd2, 0x05, 0xec, 0xbc, 0x33, 0xb0, 0xeb, 0x2f, 0x9e, 0xe0, 0xe8,
  0xd6, 0x42, 0xb8, 0x0a, 0xed, 0xd7, 0xd9, 0xce, 0xb0, 0xda, 0x81, 0xf3,
  0xdf, 0x0a, 0xcd, 0xf9, 0xef, 0xe5, 0xd2, 0x47, 0x33, 0xc6, 0xd5, 0x1a,
  0xfb, 0x02, 0xae, 0x0a, 0x2d, 0xbe, 0xbe, 0x12, 0x25, 0x02, 0xed, 0x36,
  0x2c, 0xdc, 0x3f, 0x05, 0x3b, 0x06, 0x94, 0xd8, 0xbf, 0xd6, 0x2d, 0xe1,
  0xf7, 0x81, 0xdd, 0xc6, 0xd1, 0xf0, 0xd1, 0x19, 0x68, 0x47, 0xdd, 0xff,
  0x1b, 0xd5, 0x58, 0xe3, 0x2f, 0xd5, 0x8a, 0xc7, 0xbc, 0x07, 0xea, 0xf1,
  0x01, 0xa6, 0x12, 0xcf, 0xa2, 0xff, 0xee, 0xed, 0x6f, 0x38, 0x02, 0x15,
  0x4d, 0x15, 0x1b, 0xe8, 0x22, 0xf7, 0xad, 0xd1, 0xfe, 0xd4, 0x10, 0x1c,
  0x0d, 0x13, 0xc8, 0xee, 0xcb, 0x34, 0xba, 0xe4, 0xd9, 0x0d, 0x55, 0xff,
  0x00, 0x26, 0xdd, 0xd9, 0xc0, 0x1f, 0x6f, 0xb7, 0xeb, 0x03, 0xe8, 0x2f,
  0xd6, 0xec, 0xef, 0x06, 0xaf, 0xbe, 0xef, 0x23, 0xbf, 0x66, 0x7f, 0xe7,
  0x41, 0x6b, 0xd2, 0x1d, 0xd6, 0x15, 0x27, 0x40, 0x2f, 0x63, 0xf1, 0xc9,
  0xfd, 0x4c, 0x41, 0x32, 0x26, 0x52, 0xe8, 0x0c, 0xf5, 0xec, 0xe4, 0x1b,
  0x1e, 0x1c, 0x07, 0x11, 0xfc, 0xdc, 0x45, 0x18, 0xe0, 0x6e, 0xb5, 0xe2,
  0xba, 0xb0, 0x04, 0xe1, 0xe8, 0x6b, 0xbb, 0xc5, 0x88, 0x1a, 0xaf, 0x21,
  0x0f, 0xfa, 0xc0, 0x29, 0x02, 0xfc, 0x0f, 0x31, 0xf2, 0x22, 0xa7, 0x0b,
  0xb7, 0xeb, 0x35, 0x36, 0x1f, 0xea, 0x96, 0xf9, 0x9c, 0xf3, 0xdf, 0x18,
  0xf5, 0xcb, 0xc0, 0xe3, 0xf6, 0xed, 0xc5, 0x11, 0x1d, 0xc2, 0xe7, 0x20,
  0x94, 0xea, 0x18, 0xfb, 0xfa, 0x2c, 0x81, 0x0b, 0xc4, 0xfa, 0xeb, 0xed,
  0x1d, 0x11, 0xb6, 0xf6, 0xe9, 0xd0, 0x01, 0x24, 0xf3, 0xf9, 0xc6, 0x25,
  0xd1, 0x2b, 0x0c, 0x2d, 0x14, 0x34, 0x92, 0xf0, 0x4e, 0x3a, 0xe4, 0x21,
  0x2b, 0x12, 0x36, 0x14, 0xf5, 0xea, 0xa4, 0x9f, 0xf9, 0xeb, 0xf1, 0xff,
  0xe1, 0x8e, 0xfb, 0xba, 0xd7, 0xdd, 0xd2, 0xee, 0x4a, 0x23, 0xce, 0x14,
  0x55, 0xd9, 0x3f, 0x27, 0x0f, 0xf5, 0xa2, 0x96, 0xd7, 0xeb, 0x2a, 0x09,
  0xdd, 0x81, 0xf6, 0xd7, 0x81, 0xfd, 0xdb, 0x0b, 0x55, 0x3a, 0xfe, 0x1c,
  0x3e, 0xcd, 0x61, 0x0b, 0x16, 0x1c, 0x9a, 0xdb, 0xe8, 0xfa, 0x09, 0x0b,
  0xee, 0xd6, 0xf8, 0xce, 0xe7, 0xef, 0xd3, 0xe8, 0xd9, 0xf0, 0x1e, 0x32,
  0x2e, 0xf2, 0xe9, 0x04, 0x46, 0x3b, 0x3b, 0x2d, 0x01, 0xf1, 0x4f, 0x01,
  0x68, 0x23, 0xde, 0xe0, 0xdc, 0xf2, 0x73, 0xe9, 0xdc, 0xed, 0x2a, 0xfc,
  0x06, 0xf4, 0xad, 0x23, 0x7d, 0x46, 0x22, 0x3a, 0xfc, 0xc5, 0x4f, 0x0b,
  0x39, 0xfe, 0xd8, 0xbb, 0xc1, 0xe3, 0x38, 0x1d, 0x9e, 0xfd, 0x1b, 0x0c,
  0x29, 0xf1, 0xa7, 0x0c, 0x47, 0x43, 0x11, 0x2f, 0x07, 0xe5, 0x7f, 0x1a,
  0x61, 0xe2, 0xab, 0xb8, 0xe8, 0xaf, 0x7e, 0xdc, 0xc8, 0x45, 0x20, 0x18,
  0xf5, 0xf8, 0xb3, 0x1d, 0xb1, 0x44, 0xcb, 0x29, 0x1c, 0xb6, 0xa0, 0x31,
  0xba, 0xff, 0xce, 0x02, 0x31, 0xdb, 0xc4, 0xd1, 0x81, 0x0e, 0xcb, 0x16,
  0x17, 0x17, 0x9c, 0x00, 0xbc, 0xef, 0x99, 0x02, 0x26, 0xd2, 0xbf, 0xe1,
  0xbc, 0x09, 0xa5, 0x21, 0x41, 0x00, 0xb8, 0xd2, 0xd7, 0xf5, 0x12, 0x27,
  0x27, 0xdc, 0xb1, 0x03, 0xa9, 0xfc, 0x95, 0x08, 0xf0, 0xe1, 0xd8, 0x24,
  0xc9, 0xf9, 0xf7, 0x29, 0x10, 0x0d, 0xdf, 0x0f, 0x02, 0x8c, 0xcc, 0xab,
  0xb5, 0xec, 0x05, 0xf5, 0x1e, 0x2e, 0x53, 0x08, 0x21, 0x4d, 0xc0, 0x11,
  0xb6, 0x13, 0x36, 0x40, 0x3f, 0x04, 0xb0, 0xff, 0x22, 0xe8, 0x18, 0xc0,
  0xa5, 0xd9, 0xda, 0x11, 0x05, 0xf7, 0x7f, 0x01, 0xf3, 0x21, 0xcf, 0x16,
  0xc2, 0xfb, 0x54, 0x2f, 0x4c, 0x06, 0xc7, 0xd6, 0xf6, 0xeb, 0xcf, 0xbc,
  0xc5, 0xce, 0xe5, 0x20, 0x2a, 0x1f, 0x52, 0xfb, 0x37, 0x26, 0x93, 0xd3,
  0xec, 0x0c, 0xfd, 0x09, 0x49, 0xed, 0x94, 0x05, 0xa1, 0x2b, 0x81, 0xe2,
  0x52, 0x47, 0x5c, 0xf5, 0x2d, 0xf7, 0xfa, 0xae, 0xee, 0xaa, 0x29, 0xf9,
  0xd0, 0xc8, 0xab, 0x0d, 0x9e, 0x29, 0xa7, 0xe2, 0x2b, 0xac, 0xca, 0xa5,
  0x89, 0xd4, 0xbe, 0xad, 0xeb, 0xe5, 0xc9, 0x2a, 0xe9, 0xa5, 0x28, 0xe0,
  0x38, 0xe3, 0x38, 0x98, 0x01, 0xd2, 0xc7, 0xcd, 0x0b, 0x2a, 0x19, 0x0f,
  0x0e, 0x38, 0x93, 0x54, 0x4e, 0xe6, 0x8a, 0xaf, 0xbc, 0xa6, 0xba, 0xb9,
  0xbe, 0xd2, 0xdd, 0xea, 0xe7, 0x20, 0xea, 0x22, 0x6e, 0xf0, 0xff, 0xff,
  0x04, 0x00, 0x00, 0x00, 0x40, 0x00, 0x00, 0x00, 0xa3, 0x0f, 0x00, 0x00,
  0x67, 0x08, 0x00, 0x00, 0xc0, 0xfd, 0xff, 0xff, 0xb2, 0xfa, 0xff, 0xff,
  0x95, 0xfc, 0xff, 0xff, 0xcf, 0x07, 0x00, 0x00, 0xf2, 0x05, 0x00, 0x00,
  0xb7, 0xf7, 0xff, 0xff, 0x1f, 0x04, 0x00, 0x00, 0x8d, 0xf8, 0xff, 0xff,
  0xe1, 0xfd, 0xff, 0xff, 0x34, 0xfc, 0xff, 0xff, 0x56, 0xf8, 0xff, 0xff,
  0x17, 0xfc, 0xff, 0xff, 0xa3, 0x01, 0x00, 0x00, 0xe6, 0xf7, 0xff, 0xff,
  0xba, 0xf0, 0xff, 0xff, 0x04, 0x00, 0x00, 0x00, 0x80, 0x0d, 0x00, 0x00,
  0x25, 0x1f, 0x01, 0x24, 0xdd, 0x07, 0x18, 0xea, 0x01, 0xf3, 0xef, 0x06,
  0xc5, 0xe0, 0x0b, 0xdf, 0x28, 0x16, 0xdc, 0x18, 0x4e, 0xf0, 0x3a, 0xed,
  0x27, 0xfe, 0x05, 0x19, 0x2a, 0xe9, 0x00, 0xe0, 0x20, 0xe9, 0xc8, 0x30,
  0x2b, 0xe1, 0x20, 0xe5, 0x4a, 0x0f, 0x02, 0x64, 0xf6, 0xfe, 0xb8, 0x28,
  0x0e, 0x15, 0x05, 0x43, 0xd3, 0xfc, 0xef, 0xc3, 0x1c, 0xf1, 0xf0, 0xf0,
  0xc7, 0xf9, 0x0b, 0x03, 0x1a, 0x20, 0xd6, 0x39, 0x48, 0x0e, 0x3c, 0xe8,
  0x23, 0xeb, 0x0e, 0x48, 0x69, 0xeb, 0x0b, 0xdd, 0x0b, 0x14, 0xfb, 0x03,
  0x23, 0xda, 0xfe, 0xcf, 0x42, 0x00, 0xc4, 0x6f, 0x3f, 0xcc, 0xdb, 0xf2,
  0x2e, 0x34, 0xf7, 0x3f, 0xf9, 0x0f, 0xee, 0xdb, 0x11, 0xfb, 0x28, 0x2e,
  0xde, 0x12, 0x3f, 0xf3, 0xfa, 0x0b, 0x16, 0x1b, 0x3c, 0xfb, 0xfd, 0x14,
  0x47, 0x06, 0x0e, 0x64, 0x7b, 0x0b, 0x1d, 0xf3, 0x18, 0xf9, 0xed, 0x28,
  0x3c, 0x04, 0x18, 0xf5, 0x59, 0xd8, 0xdd, 0x7f, 0x15, 0xfb, 0xd3, 0xf3,
  0xb2, 0xfe, 0x17, 0xba, 0xd5, 0xd0, 0x01, 0x95, 0xff, 0x26, 0x3e, 0xea,
  0xd6, 0xeb, 0x01, 0x17, 0x46, 0x30, 0x91, 0xe1, 0xb7, 0x41, 0xa6, 0x25,
  0x5c, 0xa3, 0xe8, 0xdd, 0x21, 0xe4, 0x1a, 0x38, 0x03, 0x85, 0xe6, 0xd2,
  0xd9, 0x49, 0xa3, 0xa4, 0x08, 0x53, 0xc0, 0x60, 0xb0, 0x25, 0x1d, 0xcb,
  0x8d, 0x3e, 0x29, 0x30, 0xab, 0x3b, 0x16, 0x1f, 0x93, 0x49, 0xdb, 0xe2,
  0xd4, 0xb5, 0xc3, 0xe8, 0x44, 0x94, 0xe6, 0x0c, 0xdb, 0xbf, 0xbd, 0x91,
  0xb7, 0x08, 0xd2, 0xe3, 0xdf, 0xee, 0x97, 0xe5, 0xff, 0xb7, 0xcf, 0xf7,
  0x9a, 0x90, 0xcc, 0x69, 0x26, 0xff, 0xe0, 0xc1, 0xb7, 0x19, 0xf6, 0x2d,
  0xd0, 0x3f, 0x5c, 0xc0, 0x9f, 0xd6, 0xb2, 0x57, 0xde, 0xd1, 0xce, 0xd3,
  0x43, 0xbc, 0xc9, 0x68, 0x81, 0x38, 0xb8, 0xfe, 0xa1, 0x40, 0x82, 0xd8,
  0x90, 0xfe, 0x0a, 0xab, 0x45, 0x1b, 0xe4, 0x58, 0xa3, 0xe8, 0x4e, 0xcc,
  0x12, 0x2d, 0x9f, 0xf8, 0xf3, 0x01, 0xb0, 0x0b, 0x3c, 0x9a, 0xf5, 0xce,
  0xfa, 0xe7, 0xde, 0x17, 0xdd, 0xfc, 0xda, 0xd2, 0x08, 0xfb, 0x0d, 0x02,
  0xd5, 0xc9, 0x34, 0x1b, 0x04, 0x26, 0x20, 0x2c, 0x51, 0x28, 0x41, 0xc0,
  0x0c, 0x1f, 0xff, 0x3f, 0x48, 0xb7, 0x55, 0xc5, 0x02, 0x20, 0x10, 0xf9,
  0x5f, 0x02, 0x1f, 0xac, 0x12, 0xf9, 0xcd, 0x5e, 0x46, 0xc2, 0xca, 0x03,
  0xe6, 0x2e, 0x0e, 0x3e, 0x08, 0x10, 0x1d, 0x05, 0xff, 0xd3, 0xd2, 0xee,
  0xb5, 0x1f, 0xfb, 0xc1, 0xf3, 0xfc, 0xe8, 0x1e, 0x37, 0xe5, 0x14, 0xc4,
  0x17, 0xf4, 0xf9, 0x3d, 0x5c, 0xef, 0x10, 0x0f, 0x38, 0xe7, 0xe2, 0xe0,
  0x58, 0xfd, 0x2c, 0x04, 0x2b, 0xed, 0xf9, 0x58, 0x1b, 0xc5, 0xe4, 0xf5,
  0x2a, 0x38, 0xf5, 0x29, 0x10, 0x31, 0xd5, 0xeb, 0x2e, 0xfe, 0x09, 0x4b,
  0xe3, 0x22, 0x08, 0x04, 0x39, 0x00, 0x0c, 0x23, 0x7f, 0x4c, 0x1c, 0xd0,
  0x0a, 0x36, 0xf9, 0x7e, 0x67, 0xf3, 0x50, 0xd8, 0x41, 0x33, 0xe5, 0x37,
  0x30, 0x39, 0x43, 0xe6, 0x2e, 0x1c, 0x1c, 0x74, 0x2d, 0xef, 0x2a, 0x08,
  0x29, 0x2a, 0xbc, 0xd8, 0x0f, 0xeb, 0x06, 0xb5, 0xfa, 0xd9, 0xe1, 0xe8,
  0x17, 0xd4, 0xfc, 0xfd, 0x29, 0x12, 0xee, 0x19, 0xad, 0x05, 0xe4, 0x02,
  0x0e, 0x0f, 0xf3, 0xd6, 0x89, 0xf6, 0x2e, 0x15, 0x17, 0xf8, 0x02, 0xf9,
  0xf0, 0xfd, 0xba, 0x10, 0xe3, 0xf6, 0x19, 0x04, 0xe8, 0x21, 0x03, 0x0b,
  0x11, 0x39, 0xc4, 0xd1, 0x29, 0xdc, 0x06, 0xa8, 0x03, 0xef, 0xe6, 0xe2,
  0x1a, 0xcc, 0x06, 0xe4, 0xfa, 0x1b, 0xe9, 0xda, 0x81, 0xd9, 0xfb, 0x05,
  0xea, 0xe0, 0xee, 0xbc, 0x9c, 0x0c, 0x20, 0xe7, 0x38, 0x06, 0x1d, 0x00,
  0x10, 0xef, 0xab, 0xfd, 0x9a, 0xf6, 0x15, 0x00, 0xf5, 0x1b, 0xff, 0xfb,
  0x37, 0x11, 0xc3, 0xd1, 0xfe, 0xf5, 0x1b, 0xab, 0x19, 0xd2, 0xdf, 0xe6,
  0x17, 0xa1, 0x00, 0x0c, 0x10, 0x08, 0xd7, 0xe0, 0x88, 0xf2, 0xfb, 0xf7,
  0x0f, 0xd9, 0xfd, 0xcb, 0xd8, 0x0a, 0x0e, 0x00, 0x28, 0x17, 0x19, 0x16,
  0xf0, 0xec, 0xa3, 0x19, 0xbb, 0xed, 0x20, 0xdd, 0xf9, 0x24, 0x32, 0xfa,
  0x17, 0x19, 0xdb, 0x2c, 0x25, 0x17, 0x08, 0xd2, 0xee, 0xde, 0xf3, 0x05,
  0xf7, 0xc0, 0x2c, 0xf0, 0x04, 0x09, 0xcc, 0xfc, 0x13, 0xf8, 0x0c, 0xde,
  0x1e, 0xe9, 0xdf, 0x1f, 0x17, 0xa9, 0xf2, 0xf6, 0x0d, 0x13, 0xcb, 0x03,
  0xb3, 0xf9, 0xea, 0xc0, 0x16, 0xf3, 0xbd, 0xf7, 0x81, 0xce, 0xe5, 0x08,
  0xfc, 0x19, 0xc3, 0x2d, 0xf1, 0xf2, 0x04, 0xb3, 0xeb, 0xee, 0xec, 0xeb,
  0xfd, 0xe6, 0x0a, 0xed, 0x02, 0xf8, 0xde, 0x0d, 0xf2, 0xe3, 0xfb, 0x0d,
  0xfb, 0xea, 0x01, 0x15, 0x1e, 0x92, 0xd9, 0xf7, 0xfb, 0x0c, 0xcf, 0xfd,
  0xdd, 0xed, 0x10, 0xce, 0x1a, 0xd5, 0xf1, 0x0f, 0xc0, 0xcc, 0x00, 0xfb,
  0x1a, 0x11, 0xcf, 0x35, 0x19, 0x14, 0xfd, 0xd0, 0xee, 0x08, 0xf4, 0xf9,
  0xfd, 0xc4, 0x21, 0xef, 0x0c, 0x10, 0xdc, 0x1f, 0x11, 0xee, 0x20, 0xf3,
  0x13, 0xfa, 0xfd, 0x1c, 0x14, 0xcb, 0x10, 0xe9, 0xf1, 0xf0, 0xca, 0xf0,
  0x03, 0xfe, 0xf9, 0xcf, 0x09, 0xe5, 0xe8, 0x1d, 0xdb, 0xd6, 0x01, 0xf9,
  0xd5, 0xdc, 0xcb, 0xea, 0xd9, 0xb2, 0xea, 0xc2, 0xe6, 0x91, 0xac, 0xcd,
  0xe0, 0x8b, 0x86, 0xe1, 0xd8, 0xa4, 0x27, 0x0e, 0x26, 0xf8, 0x25, 0x10,
  0x0f, 0xd5, 0xe7, 0xeb, 0xf1, 0x31, 0x1c, 0xfc, 0x13, 0xe5, 0xee, 0xaf,
  0x28, 0x08, 0xf7, 0x0c, 0xf9, 0xd5, 0xcf, 0xae, 0x2e, 0xde, 0x3b, 0x18,
  0xef, 0xba, 0xc9, 0xb9, 0x0f, 0xc3, 0xda, 0x0a, 0xef, 0xc4, 0xcc, 0x07,
  0xaf, 0xc2, 0x81, 0x2b, 0xf4, 0xbe, 0xf6, 0xca, 0x07, 0x0e, 0xf4, 0xe3,
  0xfc, 0xcf, 0x11, 0xf5, 0x0e, 0x18, 0xfe, 0xf0, 0xf6, 0xfc, 0x13, 0xb2,
  0x2a, 0x1b, 0x09, 0x03, 0x1a, 0xd7, 0xd0, 0xbe, 0x33, 0x0d, 0xd6, 0x03,
  0xc7, 0xfb, 0xec, 0xee, 0x12, 0xb9, 0x05, 0xca, 0xe1, 0xaa, 0xc7, 0xcc,
  0x94, 0xae, 0xa1, 0x05, 0xd4, 0xfc, 0x1e, 0xd6, 0x19, 0x0e, 0x21, 0x07,
  0x0a, 0x01, 0xf4, 0x06, 0x15, 0x2c, 0x33, 0xd4, 0xf5, 0xed, 0xd2, 0xcd,
  0x0b, 0x07, 0x2e, 0x0b, 0xe7, 0xea, 0xe2, 0x16, 0x27, 0xba, 0x19, 0x26,
  0x17, 0x11, 0xdc, 0x4c, 0xc8, 0x0a, 0xe7, 0xed, 0xe2, 0xe6, 0x06, 0x15,
  0xd3, 0xed, 0x37, 0xed, 0x1a, 0xe7, 0xed, 0x50, 0x76, 0xf3, 0x32, 0xf8,
  0x28, 0xf0, 0xe2, 0x3b, 0x4e, 0xcd, 0x67, 0xeb, 0xe7, 0x27, 0x01, 0x3c,
  0x3d, 0x02, 0x0f, 0xc0, 0x41, 0xd9, 0xb9, 0x43, 0x09, 0xee, 0xd2, 0xf4,
  0x13, 0x28, 0xed, 0x2c, 0xe1, 0x15, 0xf8, 0xb7, 0xe3, 0xe1, 0xd4, 0x3d,
  0xb9, 0xe5, 0x1e, 0x05, 0xe7, 0xe4, 0x1a, 0x49, 0x51, 0xe9, 0x24, 0xfe,
  0x2c, 0xeb, 0x02, 0x5f, 0x58, 0x10, 0x4b, 0xec, 0xe2, 0xf2, 0xe6, 0x0c,
  0x4f, 0xdd, 0x17, 0xc4, 0x47, 0xff, 0x00, 0x2e, 0x15, 0xe8, 0xcc, 0x19,
  0xf1, 0x32, 0xf1, 0x4e, 0x08, 0x34, 0xfa, 0x12, 0x0a, 0xf6, 0x2e, 0x0c,
  0x9b, 0x02, 0x32, 0x02, 0xde, 0xd4, 0x2a, 0x5e, 0x77, 0x19, 0x26, 0x32,
  0x34, 0x0c, 0xf0, 0x5f, 0x6c, 0x06, 0x7f, 0xea, 0x17, 0x01, 0x10, 0x18,
  0x73, 0xeb, 0x3b, 0xca, 0x53, 0x21, 0xd7, 0x7e, 0x2a, 0xb4, 0xe3, 0xf9,
  0x3f, 0xf9, 0x14, 0x9e, 0xa0, 0xd3, 0xe3, 0x18, 0xd5, 0xed, 0x08, 0xb9,
  0x45, 0x22, 0x14, 0xfc, 0x1a, 0xcc, 0x30, 0xcf, 0x06, 0x01, 0x00, 0x3b,
  0xc9, 0xdc, 0x29, 0x91, 0x4a, 0x12, 0x2a, 0x09, 0xe7, 0xfd, 0xfd, 0xe6,
  0x02, 0xdd, 0xc4, 0x25, 0x03, 0x01, 0x01, 0xef, 0xeb, 0xf2, 0x05, 0x11,
  0x14, 0x1a, 0x2a, 0xbf, 0x81, 0xcc, 0xde, 0x15, 0xc2, 0x08, 0xf0, 0xab,
  0x42, 0x32, 0x07, 0xed, 0x0a, 0xb6, 0xfe, 0xb0, 0x18, 0xd0, 0xec, 0x1c,
  0xcf, 0x14, 0x09, 0xb7, 0x39, 0xf7, 0x0a, 0x0d, 0x16, 0x37, 0xfc, 0xba,
  0xf0, 0xe8, 0xf5, 0x0e, 0xe8, 0x0e, 0x0f, 0xed, 0x36, 0x16, 0xda, 0xf3,
  0x07, 0x14, 0x20, 0x9a, 0xa3, 0xcc, 0x1c, 0x27, 0xca, 0xdf, 0x2f, 0xcc,
  0x11, 0x07, 0x07, 0xd4, 0xf8, 0xc7, 0x2d, 0xbb, 0xc9, 0xc2, 0x14, 0x36,
  0xdd, 0xf6, 0x0b, 0xab, 0x3e, 0x0b, 0xfd, 0x03, 0x20, 0x13, 0x02, 0xd5,
  0xf3, 0xc7, 0x0f, 0x03, 0xda, 0xdf, 0xec, 0xf6, 0xf0, 0x23, 0xac, 0xf9,
  0xe5, 0xfc, 0xba, 0x18, 0xfe, 0xe0, 0xd2, 0xc1, 0xdc, 0xc9, 0xc1, 0xa5,
  0xf2, 0xe4, 0xa6, 0x11, 0xf3, 0x02, 0x0e, 0x6a, 0x53, 0x06, 0xcc, 0xd7,
  0xdd, 0xeb, 0xde, 0xf1, 0xf4, 0xdc, 0x46, 0x11, 0xfb, 0xce, 0xf0, 0x37,
  0x4a, 0xf1, 0x4c, 0xe1, 0x2c, 0xdd, 0xea, 0x12, 0x6a, 0xec, 0xcc, 0xe2,
  0xa5, 0xd0, 0x2a, 0x01, 0x06, 0x0f, 0xf9, 0xf7, 0xca, 0x15, 0x0b, 0xc7,
  0xeb, 0x08, 0xd3, 0xfe, 0xc9, 0x0a, 0x04, 0x7f, 0x48, 0x48, 0xd6, 0x10,
  0x9d, 0x2e, 0xf6, 0xfb, 0xee, 0x13, 0x3a, 0x17, 0xb8, 0xc5, 0x27, 0x1c,
  0x54, 0x20, 0x44, 0x05, 0xf1, 0x2d, 0x21, 0xe8, 0x6a, 0x22, 0xd3, 0xec,
  0xb2, 0xe7, 0xf0, 0x18, 0xd5, 0xb8, 0xfb, 0xe0, 0xc7, 0xd6, 0x16, 0xff,
  0xc5, 0xec, 0x86, 0xe2, 0xdf, 0xf6, 0x15, 0x63, 0x59, 0x11, 0xb8, 0xea,
  0xc6, 0xeb, 0x06, 0xb0, 0xdd, 0x15, 0x27, 0x1d, 0xfc, 0xc3, 0x13, 0x42,
  0x69, 0xc6, 0x3e, 0xe5, 0x02, 0xde, 0xf8, 0xcf, 0x52, 0x09, 0xbc, 0xf6,
  0x1e, 0x11, 0xce, 0x1d, 0xf5, 0x34, 0x0c, 0xfd, 0x14, 0x04, 0xfe, 0x00,
  0xac, 0x02, 0x26, 0xf5, 0x19, 0xe7, 0xeb, 0x29, 0x62, 0x1d, 0xfb, 0xd0,
  0x31, 0xf4, 0x05, 0x52, 0x20, 0xf5, 0x32, 0xf4, 0x1a, 0x10, 0xe9, 0xf3,
  0x10, 0x02, 0x2e, 0xd4, 0x3c, 0x1c, 0xfe, 0x59, 0x37, 0xba, 0xab, 0xf6,
  0x1e, 0x03, 0x12, 0x10, 0xcd, 0x25, 0x22, 0xfa, 0x17, 0xd8, 0xdc, 0x1c,
  0xf5, 0xd5, 0xe0, 0xdd, 0x0c, 0x09, 0x02, 0x4e, 0x67, 0x2a, 0x08, 0xfa,
  0x3b, 0xed, 0x0d, 0x41, 0x69, 0xc4, 0x1b, 0x10, 0xee, 0x10, 0xe1, 0x07,
  0x3d, 0x04, 0x20, 0xe6, 0x35, 0xf1, 0xc2, 0x64, 0x2b, 0xba, 0xdc, 0xe4,
  0xf3, 0x12, 0xf2, 0x47, 0xf4, 0x34, 0x1b, 0xf2, 0x1b, 0x2c, 0xf4, 0x34,
  0xd9, 0x1e, 0x4c, 0xfb, 0x21, 0x0e, 0xfd, 0x3e, 0x54, 0x3f, 0x0d, 0xf4,
  0x0e, 0x15, 0x00, 0x45, 0x6b, 0x06, 0x42, 0xee, 0xf5, 0x11, 0x11, 0x26,
  0x4b, 0xf8, 0x21, 0xfa, 0x5f, 0x1c, 0xe9, 0x7f, 0x18, 0xe6, 0xc5, 0x00,
  0x00, 0x38, 0xf4, 0x20, 0xe6, 0x1e, 0x05, 0xd9, 0x30, 0x00, 0xfc, 0x0f,
  0xc5, 0xe6, 0xec, 0x14, 0x29, 0xe4, 0x08, 0x4a, 0x52, 0x14, 0x15, 0x06,
  0x40, 0x12, 0xde, 0x4f, 0x3c, 0xf5, 0x2e, 0xe5, 0x00, 0x11, 0xdf, 0x22,
  0x29, 0x23, 0x38, 0xf0, 0x21, 0xfd, 0xf7, 0x4d, 0x13, 0xbe, 0xbc, 0xfa,
  0x2c, 0xe9, 0xe4, 0xf4, 0xf7, 0x26, 0xe7, 0xfb, 0xfc, 0x15, 0x0d, 0x24,
  0xde, 0xe0, 0x4d, 0xcc, 0xf3, 0xf5, 0xf7, 0x3a, 0x4c, 0xf2, 0x0f, 0xd3,
  0x21, 0x13, 0x09, 0x3a, 0x69, 0xd3, 0x1e, 0x0b, 0xec, 0xf4, 0xf4, 0x13,
  0x45, 0xea, 0x11, 0xb0, 0x32, 0x0d, 0xd4, 0x3c, 0x2b, 0xed, 0xcf, 0xec,
  0xfb, 0x33, 0x26, 0x2b, 0xf8, 0x0e, 0x11, 0x06, 0x37, 0xf3, 0xf5, 0x10,
  0xed, 0xf4, 0x0d, 0x17, 0xec, 0xe0, 0x25, 0x1e, 0x30, 0x3c, 0x21, 0x17,
  0x1f, 0x0b, 0x0f, 0x29, 0x56, 0xed, 0x36, 0xf5, 0xea, 0x07, 0xfe, 0xe4,
  0x21, 0xfe, 0x17, 0xd9, 0x46, 0xfa, 0xe5, 0x7f, 0x15, 0xcd, 0xd8, 0x01,
  0xc0, 0xa9, 0x1e, 0x5c, 0x0d, 0x4b, 0xc1, 0xd7, 0xfe, 0x2c, 0x0e, 0xbd,
  0xf0, 0x1e, 0x12, 0x2b, 0x28, 0x19, 0x2f, 0xfe, 0xef, 0x40, 0xd1, 0xe2,
  0xb1, 0x32, 0x3c, 0xec, 0xcf, 0xf4, 0x20, 0xd2, 0xe9, 0x87, 0xf6, 0x40,
  0x53, 0x3c, 0xf8, 0x25, 0xe5, 0xf2, 0xdd, 0xb9, 0x41, 0xdf, 0x8e, 0xfd,
  0xea, 0xf2, 0x24, 0x47, 0x1f, 0x18, 0x08, 0xda, 0xf2, 0xfe, 0x20, 0xe4,
  0xba, 0x15, 0x2b, 0xee, 0xdb, 0x23, 0x20, 0x20, 0xca, 0x11, 0xd3, 0xf6,
  0xb7, 0xfe, 0x0d, 0xaf, 0xf4, 0xe7, 0xe9, 0xd8, 0xe4, 0xba, 0xcf, 0x0a,
  0x4c, 0xd8, 0x21, 0xc4, 0xfa, 0x05, 0x1f, 0x81, 0x12, 0x0d, 0xe5, 0x0b,
  0xbb, 0x33, 0x11, 0x09, 0x23, 0x36, 0xf1, 0x09, 0xb1, 0x1b, 0xf0, 0x9f,
  0x8f, 0x05, 0x12, 0x00, 0xf2, 0x22, 0x1a, 0xff, 0x1e, 0x51, 0xe0, 0x19,
  0xae, 0xd7, 0xf3, 0xad, 0x8f, 0xca, 0xb4, 0xe9, 0xf2, 0xfb, 0x1b, 0x45,
  0x56, 0x41, 0x09, 0xf1, 0x90, 0x0e, 0x0d, 0x99, 0x43, 0x02, 0x98, 0x12,
  0x1a, 0x17, 0xfa, 0x81, 0xeb, 0xe1, 0x38, 0x3e, 0xcf, 0xc9, 0x3c, 0xc1,
  0x01, 0x2c, 0x19, 0xdc, 0x27, 0xcb, 0xcc, 0xe5, 0x3a, 0x21, 0x56, 0x33,
  0x40, 0xc5, 0xcf, 0xd4, 0x3f, 0x2f, 0xbe, 0xc3, 0x54, 0xd8, 0xd4, 0x03,
  0x14, 0xbb, 0x02, 0xff, 0x4e, 0xa5, 0x1d, 0x0f, 0x27, 0xf5, 0x31, 0x2f,
  0xfe, 0x09, 0x2c, 0xaa, 0xb6, 0xfa, 0x35, 0x3b, 0x2e, 0xd8, 0x27, 0xda,
  0xfb, 0x21, 0xd4, 0x34, 0x31, 0x51, 0x20, 0xdb, 0x36, 0x2b, 0x05, 0xd9,
  0x09, 0xec, 0xbd, 0x37, 0x37, 0x1a, 0xca, 0x2b, 0x63, 0xe2, 0xbb, 0xf2,
  0x22, 0xf4, 0x1e, 0xcf, 0x1d, 0xb3, 0xdf, 0x64, 0xec, 0xd2, 0xfa, 0x0c,
  0xba, 0xc0, 0x40, 0xe2, 0x87, 0xe1, 0xf3, 0xfb, 0xc9, 0xd3, 0x34, 0x13,
  0xdc, 0x00, 0x22, 0xf3, 0x06, 0xf0, 0xe3, 0xef, 0xeb, 0xfc, 0xfd, 0x53,
  0x27, 0x1a, 0x27, 0xb9, 0x16, 0x22, 0x9a, 0x37, 0xf6, 0x22, 0x08, 0xa2,
  0xf2, 0xb6, 0x1b, 0x34, 0xff, 0x2e, 0xd2, 0x0c, 0xb9, 0x3c, 0xf9, 0xdf,
  0xc9, 0xc5, 0x2c, 0xfe, 0xd0, 0xf1, 0xd7, 0x3a, 0xc5, 0x34, 0x1f, 0x81,
  0x25, 0x31, 0x2e, 0xcc, 0x99, 0x81, 0xff, 0xa8, 0xe0, 0x1f, 0x20, 0x2f,
  0xe4, 0x01, 0x2a, 0x07, 0x4b, 0x3c, 0x2e, 0xf2, 0x9e, 0x95, 0x12, 0xaf,
  0x09, 0x10, 0xd5, 0x3c, 0xd0, 0xfa, 0x20, 0xc4, 0x42, 0xfa, 0xb3, 0x08,
  0xe9, 0xfa, 0xe8, 0xb1, 0xb1, 0x13, 0xb0, 0xe4, 0x98, 0xd8, 0x00, 0x8f,
  0x0b, 0x05, 0xf3, 0xed, 0xc9, 0x9e, 0x14, 0xa1, 0x0f, 0xf3, 0xfe, 0x23,
  0xda, 0x17, 0xe6, 0xde, 0xf5, 0x0d, 0x10, 0x1d, 0xd8, 0xf2, 0x16, 0x8e,
  0x32, 0xe2, 0xf8, 0xe9, 0xd3, 0x0d, 0xea, 0xb2, 0x16, 0xf2, 0x97, 0xef,
  0xf4, 0xd0, 0xf9, 0xc0, 0xe1, 0x25, 0xe4, 0xdb, 0xa6, 0x11, 0x14, 0xe2,
  0x19, 0x1b, 0xb7, 0xd4, 0xa4, 0xa2, 0xf3, 0xca, 0x1f, 0x2f, 0x3a, 0xf0,
  0xe3, 0xd3, 0x25, 0xbd, 0x1d, 0xe8, 0xc4, 0x24, 0xd2, 0xd5, 0x2b, 0xbc,
  0x0d, 0x19, 0xd8, 0xf5, 0xbd, 0xf3, 0x24, 0xb0, 0x18, 0xe0, 0xa5, 0xfa,
  0xd8, 0xed, 0xeb, 0x29, 0x46, 0xf8, 0x02, 0xcd, 0x20, 0x06, 0xdb, 0x40,
  0xe8, 0xf6, 0x23, 0x10, 0x2f, 0x0c, 0xfe, 0x9f, 0xf9, 0xe7, 0xdb, 0xd6,
  0xee, 0xf4, 0xdf, 0xbf, 0x09, 0xf6, 0xc5, 0x1a, 0xff, 0xff, 0xd6, 0x0f,
  0x0c, 0xe8, 0x0d, 0xc6, 0xfa, 0x07, 0xf1, 0xf8, 0xf5, 0xf7, 0x17, 0xf2,
  0xe9, 0xdd, 0x30, 0x41, 0x55, 0x41, 0xfe, 0x0e, 0xfe, 0x3b, 0x12, 0x3a,
  0x1e, 0x02, 0x49, 0x02, 0xee, 0xc8, 0x31, 0xe6, 0x30, 0x24, 0xf1, 0x0c,
  0xdd, 0x2c, 0x09, 0xb5, 0x14, 0x01, 0xd6, 0x0b, 0x00, 0xef, 0x25, 0xef,
  0x37, 0x46, 0xd9, 0x0e, 0xe5, 0x4c, 0x0c, 0xc5, 0xed, 0x2d, 0x1d, 0xed,
  0x00, 0xf0, 0x02, 0x1f, 0x29, 0x9e, 0xa7, 0xe8, 0xbe, 0xf8, 0xfe, 0x81,
  0xac, 0x14, 0x11, 0x00, 0xd5, 0xdf, 0xf9, 0xa3, 0xa2, 0x89, 0xab, 0xfb,
  0xc3, 0xce, 0xf9, 0xb0, 0xd9, 0xf1, 0xb7, 0x07, 0xec, 0x9a, 0x05, 0x94,
  0xc7, 0x86, 0xea, 0xed, 0x9e, 0xc3, 0x12, 0x9c, 0xe3, 0xe1, 0xb2, 0xef,
  0xde, 0xbf, 0x01, 0xdd, 0xe6, 0xf2, 0xc0, 0xfe, 0x99, 0xff, 0x17, 0xd2,
  0x07, 0x34, 0x16, 0x12, 0xd4, 0xbb, 0x2e, 0xc7, 0x2d, 0xf8, 0xea, 0x32,
  0xb0, 0xf3, 0x19, 0xfe, 0x1e, 0x33, 0x23, 0x00, 0xd4, 0xa1, 0x28, 0xd5,
  0x17, 0xf7, 0x00, 0x03, 0xad, 0x1f, 0xf5, 0xda, 0x0b, 0x0c, 0xee, 0xf5,
  0xbc, 0x09, 0xfa, 0xa4, 0xb1, 0xe1, 0xbe, 0x0f, 0xa9, 0x0f, 0x02, 0xab,
  0x12, 0x2a, 0x11, 0x04, 0xdc, 0xea, 0xf4, 0x9f, 0x1b, 0xd7, 0xf2, 0xee,
  0xee, 0xf8, 0x21, 0xe1, 0x24, 0xe2, 0xef, 0xe1, 0xd5, 0x07, 0x00, 0xad,
  0x33, 0xf7, 0x07, 0xef, 0xf7, 0xef, 0x29, 0xb5, 0xf5, 0xdf, 0xbf, 0x20,
  0xd6, 0xdc, 0x00, 0xa6, 0xd6, 0x1f, 0x12, 0x28, 0xb2, 0x1c, 0x21, 0xc4,
  0x26, 0xfa, 0xfd, 0xee, 0xda, 0xcc, 0x29, 0xb1, 0x0d, 0x06, 0x03, 0x18,
  0xd8, 0xdb, 0x12, 0xb8, 0x33, 0x26, 0xf9, 0x0c, 0xea, 0xd9, 0x1c, 0xe1,
  0xf9, 0xf9, 0x0e, 0x26, 0xb9, 0x0e, 0xd9, 0xd2, 0xed, 0xfb, 0x81, 0x1e,
  0x0b, 0xf0, 0xf7, 0x1d, 0x27, 0xfb, 0xfd, 0xe1, 0x13, 0xea, 0xd6, 0x20,
  0xff, 0xc4, 0xfa, 0x00, 0xfe, 0xec, 0xee, 0x3a, 0x36, 0x28, 0xfb, 0x01,
  0x00, 0x05, 0x0b, 0x0a, 0xfb, 0x01, 0x2c, 0x0f, 0xf3, 0xf2, 0x05, 0x13,
  0x4e, 0xf0, 0x13, 0xfb, 0x2f, 0x02, 0xdf, 0x3c, 0x73, 0xf3, 0x92, 0xfc,
  0xfa, 0x0a, 0xe8, 0x14, 0x0d, 0xcf, 0xfd, 0xd7, 0x19, 0xc6, 0xfa, 0x2e,
  0x11, 0xd3, 0x01, 0xff, 0xd5, 0xeb, 0xec, 0x2d, 0x33, 0x13, 0xfa, 0xf9,
  0xfc, 0x01, 0x05, 0x33, 0xf1, 0x08, 0x43, 0xf3, 0xff, 0xf5, 0xe4, 0x1d,
  0x48, 0xeb, 0x14, 0x06, 0xff, 0xeb, 0xde, 0x3d, 0x65, 0xe2, 0xaf, 0xfc,
  0xf1, 0xfe, 0x08, 0x0e, 0x36, 0xeb, 0x05, 0xfa, 0x28, 0xe4, 0xe8, 0x54,
  0x19, 0xdd, 0x01, 0xf4, 0xdd, 0xf3, 0x10, 0x31, 0x5f, 0x1a, 0xe6, 0x12,
  0xe8, 0x19, 0x1a, 0x33, 0xea, 0x2f, 0x66, 0xee, 0xdf, 0xdf, 0x11, 0x37,
  0x76, 0xfd, 0x32, 0xfd, 0x2e, 0x13, 0xed, 0x38, 0x7f, 0x0a, 0xa7, 0xf3,
  0x03, 0x17, 0xdb, 0x23, 0x6f, 0x07, 0x11, 0xd2, 0x1a, 0x00, 0x07, 0x09,
  0xd0, 0xc9, 0x43, 0x10, 0xed, 0x12, 0x0b, 0xfe, 0x08, 0xf6, 0xe8, 0xed,
  0xfd, 0xfd, 0xee, 0xfd, 0xf2, 0xf8, 0xd9, 0xfa, 0x10, 0x10, 0xd4, 0x57,
  0x6e, 0xed, 0x43, 0xe8, 0x2d, 0xfa, 0xfb, 0x33, 0x7f, 0xe3, 0xf8, 0x0d,
  0xf0, 0x0d, 0xee, 0x32, 0x3e, 0x06, 0x01, 0xbd, 0x05, 0xe5, 0xdc, 0x43,
  0x05, 0xde, 0x2e, 0x0b, 0x0f, 0xdf, 0xef, 0x18, 0x0e, 0xec, 0xd2, 0xf6,
  0xf4, 0xcd, 0xe4, 0x1c, 0x07, 0xe9, 0x1a, 0xfe, 0xfc, 0x11, 0xfc, 0x45,
  0x7d, 0x0e, 0x26, 0xe8, 0x31, 0xe2, 0x05, 0x0e, 0x60, 0xf7, 0xd7, 0x00,
  0xe3, 0x09, 0x0b, 0x6a, 0x5e, 0x26, 0x0e, 0x0e, 0x28, 0xf3, 0x0f, 0x4e,
  0x0f, 0x0a, 0x67, 0xfd, 0x03, 0xfb, 0xf9, 0x37, 0x38, 0x1a, 0x0b, 0x19,
  0xe2, 0xfe, 0x01, 0x0c, 0x03, 0x0e, 0xef, 0xee, 0xd5, 0x03, 0x1a, 0x4a,
  0x6b, 0x0c, 0x40, 0x1d, 0x0b, 0x20, 0xe7, 0x57, 0x71, 0xff, 0xf2, 0xef,
  0xbb, 0xd6, 0xd3, 0xe8, 0xf2, 0x11, 0xe5, 0x0e, 0xdb, 0xcb, 0xe0, 0xb4,
  0x25, 0x03, 0xbd, 0xf0, 0xdf, 0xff, 0xf6, 0x04, 0x06, 0x17, 0xc1, 0xce,
  0xaf, 0x1b, 0xe8, 0xd1, 0x13, 0xd0, 0x1e, 0xde, 0x81, 0xd4, 0x02, 0xe5,
  0x4a, 0xec, 0x23, 0xc5, 0xdc, 0xf4, 0x14, 0x8a, 0x18, 0x19, 0xa7, 0xfe,
  0xa4, 0xef, 0xe6, 0xed, 0xe7, 0x3a, 0xbd, 0x0b, 0xec, 0x26, 0xdf, 0xf3,
  0xf5, 0x28, 0xeb, 0xd5, 0xc8, 0x14, 0xff, 0x34, 0xf3, 0x36, 0xc2, 0xd6,
  0xa6, 0x14, 0x0d, 0x15, 0xde, 0x28, 0xfc, 0x19, 0xc1, 0x9f, 0xd7, 0xea,
  0x1a, 0x59, 0x36, 0xd7, 0xb9, 0x0d, 0xea, 0xb0, 0x4c, 0x0c, 0xbf, 0xe8,
  0xc1, 0xed, 0x24, 0x00, 0xed, 0x32, 0xce, 0xf6, 0xb6, 0xdb, 0x1c, 0xa4,
  0xf7, 0xf6, 0xb2, 0x10, 0xfb, 0xea, 0xcd, 0x37, 0x2d, 0x3b, 0xc4, 0x1e,
  0xd0, 0xf9, 0x0a, 0xe0, 0xf2, 0x17, 0xf1, 0xff, 0xc1, 0xdf, 0x20, 0xf7,
  0x2f, 0x35, 0x18, 0x13, 0xe3, 0x16, 0x22, 0xb8, 0xfa, 0xff, 0xd9, 0xe9,
  0xf7, 0xfb, 0xdd, 0x01, 0x04, 0x17, 0xe2, 0x06, 0x14, 0xd4, 0xff, 0xe7,
  0xcd, 0xc8, 0xd8, 0xf9, 0xff, 0x24, 0xf8, 0x07, 0x5e, 0x2f, 0x39, 0xd9,
  0x47, 0xe3, 0x10, 0x0b, 0x2a, 0xd7, 0x32, 0xfa, 0x19, 0x14, 0x13, 0x27,
  0x42, 0xee, 0x3f, 0xee, 0x44, 0x02, 0xf4, 0x67, 0x1b, 0xfe, 0xac, 0xdb,
  0x2b, 0x1e, 0xd4, 0x41, 0x02, 0xdc, 0x0e, 0xff, 0x37, 0xf9, 0x10, 0x1a,
  0xd0, 0x1d, 0x02, 0xd6, 0x1b, 0x0f, 0xf3, 0x42, 0x50, 0xf4, 0x0c, 0x07,
  0x0c, 0x24, 0x15, 0x60, 0x4f, 0xf5, 0x27, 0x03, 0xeb, 0x1a, 0xdf, 0xf0,
  0x41, 0x0b, 0x01, 0xe8, 0x3d, 0x10, 0xf3, 0x43, 0x29, 0x02, 0xb9, 0x04,
  0x23, 0xf1, 0xfc, 0x3d, 0x04, 0x01, 0xe9, 0xfa, 0xfa, 0xe5, 0xe6, 0x35,
  0xc4, 0x06, 0xe5, 0x06, 0xfb, 0x24, 0x20, 0x19, 0x7f, 0x07, 0x0a, 0x03,
  0x05, 0xe4, 0xf0, 0x2e, 0x34, 0x05, 0x26, 0xef, 0x25, 0x1b, 0xcc, 0x15,
  0x14, 0xfb, 0xff, 0xe5, 0x56, 0xfe, 0xf3, 0x54, 0x03, 0xd9, 0xd0, 0x16,
  0x2f, 0x2a, 0xe0, 0xf6, 0x0c, 0x0c, 0x30, 0xde, 0x31, 0xdb, 0x03, 0x29,
  0x1b, 0xf1, 0x18, 0xd4, 0x39, 0x22, 0xdb, 0x1e, 0x0d, 0xff, 0xef, 0xdf,
  0xf9, 0x05, 0x1c, 0x3c, 0x2b, 0xdc, 0x0a, 0x12, 0x08, 0x0e, 0x1e, 0x1a,
  0x53, 0x21, 0x22, 0xdb, 0x45, 0xf4, 0xdb, 0x50, 0x34, 0xce, 0xa4, 0x0a,
  0xfe, 0x23, 0x06, 0xf8, 0x0f, 0x06, 0x2f, 0xec, 0x3c, 0xf2, 0x16, 0x26,
  0x08, 0xcc, 0xf1, 0x13, 0x11, 0x30, 0xe0, 0x2b, 0x15, 0xe5, 0x01, 0xf4,
  0x18, 0x14, 0x19, 0x0f, 0x51, 0xe9, 0x1a, 0xec, 0xf3, 0x2d, 0xee, 0xeb,
  0x40, 0xcc, 0x32, 0xe7, 0x39, 0xf4, 0xdf, 0x31, 0x0c, 0xdf, 0xd9, 0x21,
  0xf7, 0x32, 0xe4, 0x33, 0xea, 0x1b, 0x28, 0x2a, 0x33, 0xf0, 0x0f, 0x41,
  0x2d, 0x1a, 0x2d, 0xd5, 0xf2, 0x28, 0xfa, 0x1c, 0x06, 0x20, 0x34, 0xdb,
  0x1c, 0x0f, 0xf7, 0x4b, 0x5e, 0x1b, 0x1f, 0xef, 0xfe, 0x0c, 0xdf, 0x25,
  0x22, 0x11, 0x28, 0xf6, 0x60, 0xd4, 0x0e, 0x7f, 0x11, 0xba, 0xd3, 0xf3,
  0xe5, 0xe5, 0x81, 0xe6, 0x06, 0xbe, 0xbe, 0xd0, 0xc2, 0xc9, 0x9d, 0xde,
  0xc7, 0x85, 0xd5, 0x0d, 0xfc, 0x02, 0xa5, 0xf3, 0x0e, 0x18, 0x12, 0xf1,
  0xed, 0xcc, 0xb1, 0x12, 0xd0, 0x8f, 0x1d, 0x06, 0x08, 0x19, 0xb2, 0xef,
  0xbd, 0xef, 0x0a, 0xd6, 0x0f, 0x01, 0xe3, 0xef, 0xcf, 0xba, 0xf4, 0xfc,
  0xcb, 0xec, 0xe6, 0xc4, 0x16, 0xea, 0xea, 0x03, 0xdc, 0xe5, 0x0c, 0x1f,
  0xf0, 0x01, 0xea, 0xff, 0x1b, 0x06, 0xeb, 0xfb, 0x00, 0xfd, 0x14, 0x17,
  0x15, 0xc5, 0xe5, 0x20, 0xd1, 0xe5, 0xe3, 0x12, 0x0d, 0x29, 0x0d, 0xf2,
  0xf0, 0xf4, 0xf5, 0xed, 0x1f, 0xe2, 0xf0, 0x1e, 0x07, 0xeb, 0x10, 0xf4,
  0xc1, 0xd5, 0x1c, 0xd2, 0x0d, 0x37, 0xdd, 0x2f, 0x02, 0x3b, 0x09, 0x3f,
  0xfc, 0x0f, 0x15, 0xf8, 0xf5, 0x0f, 0x09, 0x02, 0x11, 0x34, 0x02, 0x38,
  0xf8, 0x1b, 0x16, 0x2b, 0xdd, 0x0c, 0x14, 0xed, 0x1e, 0x0f, 0x16, 0xfe,
  0xf0, 0x12, 0x00, 0x21, 0x17, 0x27, 0x21, 0x2a, 0x12, 0x27, 0x0c, 0xef,
  0xb7, 0xd4, 0xcb, 0xfb, 0xfa, 0xc8, 0xce, 0x06, 0xda, 0xda, 0xcc, 0xa9,
  0xbb, 0xe7, 0xed, 0x0e, 0xea, 0xee, 0xe7, 0xa4, 0x9e, 0xec, 0xcb, 0xf0,
  0xf9, 0xcd, 0xfb, 0xe7, 0x83, 0xe6, 0xeb, 0xfc, 0xf4, 0xca, 0xf9, 0xc3,
  0xaf, 0xf5, 0xc0, 0x0a, 0x91, 0xfd, 0xf8, 0x82, 0x81, 0x02, 0x1a, 0xea,
  0xdc, 0xf0, 0x11, 0xf1, 0xd3, 0x08, 0xcd, 0x02, 0xd0, 0xeb, 0x0f, 0xe2,
  0xd1, 0xfe, 0xf2, 0x14, 0xe3, 0x10, 0xfd, 0x0c, 0x02, 0xf0, 0xfc, 0x11,
  0xed, 0xf2, 0xdd, 0xf6, 0xee, 0x08, 0xec, 0xf6, 0xf1, 0x31, 0xec, 0xcc,
  0xe1, 0xf9, 0xee, 0xea, 0x0f, 0xc0, 0xed, 0x02, 0xf6, 0xd5, 0x19, 0xe8,
  0xde, 0xce, 0x2d, 0xed, 0x03, 0x62, 0xc9, 0x33, 0xe2, 0x36, 0x10, 0xd5,
  0xdf, 0x1c, 0xfd, 0xfd, 0xe8, 0xc8, 0x24, 0x25, 0x0e, 0x5a, 0x0a, 0x1a,
  0xfc, 0x25, 0xfe, 0x27, 0x03, 0x1d, 0x14, 0xfa, 0x00, 0x05, 0x20, 0x10,
  0x1f, 0x3a, 0xfb, 0x04, 0x2e, 0x0e, 0xef, 0x38, 0x0c, 0xfc, 0x15, 0x01,
  0x83, 0x81, 0x44, 0x94, 0xfc, 0xac, 0x11, 0x2d, 0xd0, 0x29, 0x3b, 0xd2,
  0xd9, 0x4a, 0x16, 0x3e, 0xc7, 0x0e, 0x26, 0xfc, 0x25, 0x00, 0x16, 0xfd,
  0xff, 0xee, 0xea, 0xf0, 0x0d, 0xf1, 0xc9, 0x0b, 0x3a, 0xea, 0xf4, 0x91,
  0x12, 0xd3, 0xf4, 0x17, 0x10, 0x1b, 0x19, 0x13, 0xfa, 0x0c, 0x07, 0x06,
  0xe5, 0xd4, 0x2a, 0xb7, 0xf2, 0x9f, 0xd5, 0x1c, 0x11, 0x1b, 0x24, 0x15,
  0xfc, 0x00, 0xfb, 0xd1, 0xf6, 0xd2, 0xdf, 0xe2, 0x26, 0x15, 0x2a, 0xe2,
  0x2a, 0xdb, 0xca, 0xb7, 0x4e, 0x19, 0xa2, 0x33, 0x3f, 0x04, 0xcd, 0xaf,
  0xc3, 0xff, 0x0d, 0xe5, 0x53, 0x01, 0x12, 0x44, 0x38, 0xfd, 0x37, 0xdf,
  0xbd, 0xbc, 0x3b, 0x95, 0xf0, 0xf3, 0x1a, 0x20, 0xff, 0xfd, 0xed, 0xeb,
  0x14, 0x0e, 0x26, 0x17, 0xf4, 0x0d, 0xd5, 0xf2, 0x3f, 0x23, 0x48, 0xd6,
  0xef, 0xfe, 0xc3, 0x16, 0x10, 0xb9, 0xcb, 0xdc, 0x54, 0x0c, 0xac, 0xc6,
  0xed, 0xeb, 0x28, 0xb5, 0x39, 0xd5, 0xbc, 0x27, 0x1c, 0x9e, 0x09, 0xdb,
  0x46, 0xfe, 0xff, 0xff, 0x04, 0x00, 0x00, 0x00, 0x60, 0x00, 0x00, 0x00,
  0xae, 0xfe, 0xff, 0xff, 0x94, 0xfe, 0xff, 0xff, 0x6f, 0x00, 0x00, 0x00,
  0xe0, 0xfe, 0xff, 0xff, 0x6b, 0xfe, 0xff, 0xff, 0x9b, 0xff, 0xff, 0xff,
  0xaa, 0xfd, 0xff, 0xff, 0x85, 0xfe, 0xff, 0xff, 0x77, 0x00, 0x00, 0x00,
  0x4b, 0x00, 0x00, 0x00, 0x3a, 0xff, 0xff, 0xff, 0x33, 0x02, 0x00, 0x00,
  0x06, 0xfe, 0xff, 0xff, 0xc2, 0x01, 0x00, 0x00, 0xcf, 0xff, 0xff, 0xff,
  0x02, 0x01, 0x00, 0x00, 0x04, 0xfd, 0xff, 0xff, 0xfd, 0xfd, 0xff, 0xff,
  0x6c, 0x02, 0x00, 0x00, 0xae, 0xff, 0xff, 0xff, 0x52, 0xff, 0xff, 0xff,
  0x5d, 0x01, 0x00, 0x00, 0x1a, 0x02, 0x00, 0x00, 0x8b, 0xff, 0xff, 0xff,
  0xb2, 0xfe, 0xff, 0xff, 0x04, 0x00, 0x00, 0x00, 0x48, 0x00, 0x00, 0x00,
  0xe1, 0xe8, 0xe5, 0x37, 0xae, 0x57, 0xbe, 0x3e, 0x81, 0x0d, 0xef, 0xd0,
  0x2b, 0x19, 0xac, 0xeb, 0x95, 0xb9, 0xc6, 0xc4, 0xea, 0x4e, 0x6b, 0x47,
  0x15, 0xe1, 0x5f, 0x81, 0x9f, 0x04, 0x1f, 0xab, 0xf2, 0x66, 0x4c, 0xd0,
  0x1a, 0xd0, 0xb2, 0xac, 0x0f, 0x3f, 0xb9, 0x11, 0x51, 0xee, 0x16, 0x0b,
  0xd7, 0x54, 0xde, 0x0d, 0x51, 0x93, 0xd8, 0xe0, 0x65, 0x24, 0xe4, 0xf3,
  0xbc, 0x35, 0x1c, 0xe0, 0xef, 0x34, 0xc3, 0xa3, 0xd6, 0xb6, 0x81, 0x9e,
  0x06, 0xff, 0xff, 0xff, 0x04, 0x00, 0x00, 0x00, 0x0c, 0x00, 0x00, 0x00,
  0xda, 0xfe, 0xff, 0xff, 0xd7, 0xff, 0xff, 0xff, 0xb6, 0x01, 0x00, 0x00,
  0x1e, 0xff, 0xff, 0xff, 0x04, 0x00, 0x00, 0x00, 0x08, 0x00, 0x00, 0x00,
  0x01, 0x00, 0x00, 0x00, 0x02, 0x00, 0x00, 0x00, 0x24, 0xed, 0xff, 0xff,
  0x28, 0xed, 0xff, 0xff, 0x0f, 0x00, 0x00, 0x00, 0x4d, 0x4c, 0x49, 0x52,
  0x20, 0x43, 0x6f, 0x6e, 0x76, 0x65, 0x72, 0x74, 0x65, 0x64, 0x2e, 0x00,
  0x01, 0x00, 0x00, 0x00, 0x14, 0x00, 0x00, 0x00, 0x00, 0x00, 0x0e, 0x00,
  0x18, 0x00, 0x14, 0x00, 0x10, 0x00, 0x0c, 0x00, 0x08, 0x00, 0x04, 0x00,
  0x0e, 0x00, 0x00, 0x00, 0x14, 0x00, 0x00, 0x00, 0x1c, 0x00, 0x00, 0x00,
  0xe4, 0x02, 0x00, 0x00, 0xe8, 0x02, 0x00, 0x00, 0xec, 0x02, 0x00, 0x00,
  0x04, 0x00, 0x00, 0x00, 0x6d, 0x61, 0x69, 0x6e, 0x00, 0x00, 0x00, 0x00,
  0x0b, 0x00, 0x00, 0x00, 0xac, 0x02, 0x00, 0x00, 0x50, 0x02, 0x00, 0x00,
  0xec, 0x01, 0x00, 0x00, 0xa8, 0x01, 0x00, 0x00, 0x64, 0x01, 0x00, 0x00,
  0x20, 0x01, 0x00, 0x00, 0xdc, 0x00, 0x00, 0x00, 0xa8, 0x00, 0x00, 0x00,
  0x70, 0x00, 0x00, 0x00, 0x34, 0x00, 0x00, 0x00, 0x10, 0x00, 0x00, 0x00,
  0x00, 0x00, 0x0a, 0x00, 0x10, 0x00, 0x0c, 0x00, 0x08, 0x00, 0x04, 0x00,
  0x0a, 0x00, 0x00, 0x00, 0x0c, 0x00, 0x00, 0x00, 0x10, 0x00, 0x00, 0x00,
  0x06, 0x00, 0x00, 0x00, 0x01, 0x00, 0x00, 0x00, 0x14, 0x00, 0x00, 0x00,
  0x01, 0x00, 0x00, 0x00, 0x13, 0x00, 0x00, 0x00, 0x12, 0xfe, 0xff, 0xff,
  0x1c, 0x00, 0x00, 0x00, 0x00, 0x00, 0x00, 0x09, 0x1c, 0x00, 0x00, 0x00,
  0x20, 0x00, 0x00, 0x00, 0x05, 0x00, 0x00, 0x00, 0x00, 0x00, 0x06, 0x00,
  0x08, 0x00, 0x04, 0x00, 0x06, 0x00, 0x00, 0x00, 0x00, 0x00, 0x80, 0x3f,
  0x01, 0x00, 0x00, 0x00, 0x13, 0x00, 0x00, 0x00, 0x01, 0x00, 0x00, 0x00,
  0x12, 0x00, 0x00, 0x00, 0x4a, 0xfe, 0xff, 0xff, 0x14, 0x00, 0x00, 0x00,
  0x00, 0x00, 0x00, 0x08, 0x10, 0x00, 0x00, 0x00, 0x14, 0x00, 0x00, 0x00,
  0x04, 0x00, 0x00, 0x00, 0x28, 0xee, 0xff, 0xff, 0x01, 0x00, 0x00, 0x00,
  0x12, 0x00, 0x00, 0x00, 0x03, 0x00, 0x00, 0x00, 0x11, 0x00, 0x00, 0x00,
  0x03, 0x00, 0x00, 0x00, 0x02, 0x00, 0x00, 0x00, 0x7e, 0xfe, 0xff, 0xff,
  0x14, 0x00, 0x00, 0x00, 0x00, 0x00, 0x00, 0x1b, 0x10, 0x00, 0x00, 0x00,
  0x14, 0x00, 0x00, 0x00, 0x03, 0x00, 0x00, 0x00, 0x5c, 0xee, 0xff, 0xff,
  0x01, 0x00, 0x00, 0x00, 0x11, 0x00, 0x00, 0x00, 0x02, 0x00, 0x00, 0x00,
  0x10, 0x00, 0x00, 0x00, 0x01, 0x00, 0x00, 0x00, 0xae, 0xfe, 0xff, 0xff,
  0x14, 0x00, 0x00, 0x00, 0x00, 0x00, 0x00, 0x05, 0x24, 0x00, 0x00, 0x00,
  0x28, 0x00, 0x00, 0x00, 0x02, 0x00, 0x00, 0x00, 0xfe, 0xfe, 0xff, 0xff,
  0x02, 0x00, 0x00, 0x00, 0x02, 0x00, 0x00, 0x00, 0x02, 0x00, 0x00, 0x00,
  0x02, 0x00, 0x00, 0x00, 0x00, 0x00, 0x00, 0x01, 0x01, 0x00, 0x00, 0x00,
  0x10, 0x00, 0x00, 0x00, 0x01, 0x00, 0x00, 0x00, 0x0f, 0x00, 0x00, 0x00,
  0xee, 0xfe, 0xff, 0xff, 0x14, 0x00, 0x00, 0x00, 0x00, 0x00, 0x00, 0x01,
  0x1c, 0x00, 0x00, 0x00, 0x20, 0x00, 0x00, 0x00, 0x01, 0x00, 0x00, 0x00,
  0xe0, 0xfe, 0xff, 0xff, 0x00, 0x00, 0x00, 0x01, 0x01, 0x00, 0x00, 0x00,
  0x01, 0x00, 0x00, 0x00, 0x01, 0x00, 0x00, 0x00, 0x0f, 0x00, 0x00, 0x00,
  0x03, 0x00, 0x00, 0x00, 0x0e, 0x00, 0x00, 0x00, 0x05, 0x00, 0x00, 0x00,
  0x04, 0x00, 0x00, 0x00, 0x2e, 0xff, 0xff, 0xff, 0x14, 0x00, 0x00, 0x00,
  0x00, 0x00, 0x00, 0x05, 0x24, 0x00, 0x00, 0x00, 0x28, 0x00, 0x00, 0x00,
  0x02, 0x00, 0x00, 0x00, 0x7e, 0xff, 0xff, 0xff, 0x02, 0x00, 0x00, 0x00,
  0x02, 0x00, 0x00, 0x00, 0x02, 0x00, 0x00, 0x00, 0x02, 0x00, 0x00, 0x00,
  0x00, 0x00, 0x00, 0x01, 0x01, 0x00, 0x00, 0x00, 0x0e, 0x00, 0x00, 0x00,
  0x01, 0x00, 0x00, 0x00, 0x0d, 0x00, 0x00, 0x00, 0x6e, 0xff, 0xff, 0xff,
  0x14, 0x00, 0x00, 0x00, 0x00, 0x00, 0x00, 0x01, 0x1c, 0x00, 0x00, 0x00,
  0x20, 0x00, 0x00, 0x00, 0x01, 0x00, 0x00, 0x00, 0x60, 0xff, 0xff, 0xff,
  0x00, 0x00, 0x00, 0x01, 0x01, 0x00, 0x00, 0x00, 0x01, 0x00, 0x00, 0x00,
  0x01, 0x00, 0x00, 0x00, 0x0d, 0x00, 0x00, 0x00, 0x03, 0x00, 0x00, 0x00,
  0x0c, 0x00, 0x00, 0x00, 0x07, 0x00, 0x00, 0x00, 0x06, 0x00, 0x00, 0x00,
  0xae, 0xff, 0xff, 0xff, 0x24, 0x00, 0x00, 0x00, 0x00, 0x00, 0x00, 0x05,
  0x34, 0x00, 0x00, 0x00, 0x38, 0x00, 0x00, 0x00, 0x02, 0x00, 0x00, 0x00,
  0x00, 0x00, 0x0e, 0x00, 0x18, 0x00, 0x17, 0x00, 0x10, 0x00, 0x0c, 0x00,
  0x08, 0x00, 0x04, 0x00, 0x0e, 0x00, 0x00, 0x00, 0x02, 0x00, 0x00, 0x00,
  0x02, 0x00, 0x00, 0x00, 0x02, 0x00, 0x00, 0x00, 0x02, 0x00, 0x00, 0x00,
  0x00, 0x00, 0x00, 0x01, 0x01, 0x00, 0x00, 0x00, 0x0c, 0x00, 0x00, 0x00,
  0x01, 0x00, 0x00, 0x00, 0x0b, 0x00, 0x00, 0x00, 0x00, 0x00, 0x0e, 0x00,
  0x18, 0x00, 0x14, 0x00, 0x10, 0x00, 0x0c, 0x00, 0x0b, 0x00, 0x04, 0x00,
  0x0e, 0x00, 0x00, 0x00, 0x20, 0x00, 0x00, 0x00, 0x00, 0x00, 0x00, 0x01,
  0x28, 0x00, 0x00, 0x00, 0x2c, 0x00, 0x00, 0x00, 0x01, 0x00, 0x00, 0x00,
  0x0c, 0x00, 0x10, 0x00, 0x00, 0x00, 0x0c, 0x00, 0x08, 0x00, 0x07, 0x00,
  0x0c, 0x00, 0x00, 0x00, 0x00, 0x00, 0x00, 0x01, 0x01, 0x00, 0x00, 0x00,
  0x01, 0x00, 0x00, 0x00, 0x01, 0x00, 0x00, 0x00, 0x0b, 0x00, 0x00, 0x00,
  0x03, 0x00, 0x00, 0x00, 0x0a, 0x00, 0x00, 0x00, 0x09, 0x00, 0x00, 0x00,
  0x08, 0x00, 0x00, 0x00, 0x00, 0x00, 0x0a, 0x00, 0x0c, 0x00, 0x00, 0x00,
  0x08, 0x00, 0x04, 0x00, 0x0a, 0x00, 0x00, 0x00, 0x08, 0x00, 0x00, 0x00,
  0x0c, 0x00, 0x00, 0x00, 0x01, 0x00, 0x00, 0x00, 0x0a, 0x00, 0x00, 0x00,
  0x01, 0x00, 0x00, 0x00, 0x00, 0x00, 0x00, 0x00, 0x01, 0x00, 0x00, 0x00,
  0x14, 0x00, 0x00, 0x00, 0x01, 0x00, 0x00, 0x00, 0x00, 0x00, 0x00, 0x00,
  0x15, 0x00, 0x00, 0x00, 0x74, 0x0f, 0x00, 0x00, 0x1c, 0x0f, 0x00, 0x00,
  0x80, 0x0e, 0x00, 0x00, 0x00, 0x0e, 0x00, 0x00, 0x8c, 0x0c, 0x00, 0x00,
  0x08, 0x0b, 0x00, 0x00, 0xf4, 0x09, 0x00, 0x00, 0xd0, 0x08, 0x00, 0x00,
  0x1c, 0x08, 0x00, 0x00, 0x58, 0x07, 0x00, 0x00, 0xd4, 0x06, 0x00, 0x00,
  0xd0, 0x05, 0x00, 0x00, 0x34, 0x05, 0x00, 0x00, 0x40, 0x04, 0x00, 0x00,
  0xa4, 0x03, 0x00, 0x00, 0xb0, 0x02, 0x00, 0x00, 0x14, 0x02, 0x00, 0x00,
  0x80, 0x01, 0x00, 0x00, 0xe4, 0x00, 0x00, 0x00, 0x60, 0x00, 0x00, 0x00,
  0x04, 0x00, 0x00, 0x00, 0xf6, 0xf0, 0xff, 0xff, 0x00, 0x00, 0x00, 0x01,
  0x14, 0x00, 0x00, 0x00, 0x1c, 0x00, 0x00, 0x00, 0x1c, 0x00, 0x00, 0x00,
  0x15, 0x00, 0x00, 0x00, 0x34, 0x00, 0x00, 0x00, 0x02, 0x00, 0x00, 0x00,
  0xff, 0xff, 0xff, 0xff, 0x03, 0x00, 0x00, 0x00, 0xd8, 0xf0, 0xff, 0xff,
  0x1b, 0x00, 0x00, 0x00, 0x53, 0x74, 0x61, 0x74, 0x65, 0x66, 0x75, 0x6c,
  0x50, 0x61, 0x72, 0x74, 0x69, 0x74, 0x69, 0x6f, 0x6e, 0x65, 0x64, 0x43,
  0x61, 0x6c, 0x6c, 0x5f, 0x31, 0x3a, 0x30, 0x00, 0x02, 0x00, 0x00, 0x00,
  0x01, 0x00, 0x00, 0x00, 0x03, 0x00, 0x00, 0x00, 0xc6, 0xf9, 0xff, 0xff,
  0x00, 0x00, 0x00, 0x01, 0x18, 0x00, 0x00, 0x00, 0x20, 0x00, 0x00, 0x00,
  0x40, 0x00, 0x00, 0x00, 0x14, 0x00, 0x00, 0x00, 0x00, 0x00, 0x00, 0x09,
  0x58, 0x00, 0x00, 0x00, 0x02, 0x00, 0x00, 0x00, 0xff, 0xff, 0xff, 0xff,
  0x03, 0x00, 0x00, 0x00, 0x34, 0xf2, 0xff, 0xff, 0x08, 0x00, 0x00, 0x00,
  0x14, 0x00, 0x00, 0x00, 0x01, 0x00, 0x00, 0x00, 0x80, 0xff, 0xff, 0xff,
  0xff, 0xff, 0xff, 0xff, 0x00, 0x00, 0x00, 0x00, 0x01, 0x00, 0x00, 0x00,
  0x00, 0x00, 0x80, 0x3b, 0x1c, 0x00, 0x00, 0x00, 0x53, 0x74, 0x61, 0x74,
  0x65, 0x66, 0x75, 0x6c, 0x50, 0x61, 0x72, 0x74, 0x69, 0x74, 0x69, 0x6f,
  0x6e, 0x65, 0x64, 0x43, 0x61, 0x6c, 0x6c, 0x5f, 0x31, 0x3a, 0x30, 0x31,
  0x00, 0x00, 0x00, 0x00, 0x02, 0x00, 0x00, 0x00, 0x01, 0x00, 0x00, 0x00,
  0x03, 0x00, 0x00, 0x00, 0x46, 0xfa, 0xff, 0xff, 0x00, 0x00, 0x00, 0x01,
  0x18, 0x00, 0x00, 0x00, 0x20, 0x00, 0x00, 0x00, 0x3c, 0x00, 0x00, 0x00,
  0x13, 0x00, 0x00, 0x00, 0x00, 0x00, 0x00, 0x09, 0x70, 0x00, 0x00, 0x00,
  0x02, 0x00, 0x00, 0x00, 0xff, 0xff, 0xff, 0xff, 0x03, 0x00, 0x00, 0x00,
  0xb4, 0xf2, 0xff, 0xff, 0x08, 0x00, 0x00, 0x00, 0x10, 0x00, 0x00, 0x00,
  0x01, 0x00, 0x00, 0x00, 0x4b, 0x00, 0x00, 0x00, 0x00, 0x00, 0x00, 0x00,
  0x01, 0x00, 0x00, 0x00, 0x8e, 0xfd, 0x57, 0x3c, 0x38, 0x00, 0x00, 0x00,
  0x66, 0x75, 0x6e, 0x63, 0x74, 0x69, 0x6f, 0x6e, 0x61, 0x6c, 0x5f, 0x31,
  0x2f, 0x64, 0x65, 0x6e, 0x73, 0x65, 0x5f, 0x31, 0x2f, 0x4d, 0x61, 0x74,
  0x4d, 0x75, 0x6c, 0x3b, 0x66, 0x75, 0x6e, 0x63, 0x74, 0x69, 0x6f, 0x6e,
  0x61, 0x6c, 0x5f, 0x31, 0x2f, 0x64, 0x65, 0x6e, 0x73, 0x65, 0x5f, 0x31,
  0x2f, 0x42, 0x69, 0x61, 0x73, 0x41, 0x64, 0x64, 0x00, 0x00, 0x00, 0x00,
  0x02, 0x00, 0x00, 0x00, 0x01, 0x00, 0x00, 0x00, 0x03, 0x00, 0x00, 0x00,
  0xde, 0xfa, 0xff, 0xff, 0x00, 0x00, 0x00, 0x01, 0x18, 0x00, 0x00, 0x00,
  0x20, 0x00, 0x00, 0x00, 0x40, 0x00, 0x00, 0x00, 0x12, 0x00, 0x00, 0x00,
  0x00, 0x00, 0x00, 0x09, 0x68, 0x00, 0x00, 0x00, 0x02, 0x00, 0x00, 0x00,
  0xff, 0xff, 0xff, 0xff, 0x18, 0x00, 0x00, 0x00, 0x4c, 0xf3, 0xff, 0xff,
  0x08, 0x00, 0x00, 0x00, 0x14, 0x00, 0x00, 0x00, 0x01, 0x00, 0x00, 0x00,
  0x80, 0xff, 0xff, 0xff, 0xff, 0xff, 0xff, 0xff, 0x00, 0x00, 0x00, 0x00,
  0x01, 0x00, 0x00, 0x00, 0x47, 0xdc, 0x15, 0x3c, 0x2c, 0x00, 0x00, 0x00,
  0x66, 0x75, 0x6e, 0x63, 0x74, 0x69, 0x6f, 0x6e, 0x61, 0x6c, 0x5f, 0x31,
  0x2f, 0x67, 0x6c, 0x6f, 0x62, 0x61, 0x6c, 0x5f, 0x61, 0x76, 0x65, 0x72,
  0x61, 0x67, 0x65, 0x5f, 0x70, 0x6f, 0x6f, 0x6c, 0x69, 0x6e, 0x67, 0x32,
  0x64, 0x5f, 0x31, 0x2f, 0x4d, 0x65, 0x61, 0x6e, 0x00, 0x00, 0x00, 0x00,
  0x02, 0x00, 0x00, 0x00, 0x01, 0x00, 0x00, 0x00, 0x18, 0x00, 0x00, 0x00,
  0x6e, 0xfb, 0xff, 0xff, 0x00, 0x00, 0x00, 0x01, 0x18, 0x00, 0x00, 0x00,
  0x28, 0x00, 0x00, 0x00, 0x44, 0x00, 0x00, 0x00, 0x11, 0x00, 0x00, 0x00,
  0x00, 0x00, 0x00, 0x09, 0x68, 0x00, 0x00, 0x00, 0x04, 0x00, 0x00, 0x00,
  0xff, 0xff, 0xff, 0xff, 0x08, 0x00, 0x00, 0x00, 0x0f, 0x00, 0x00, 0x00,
  0x18, 0x00, 0x00, 0x00, 0xe4, 0xf3, 0xff, 0xff, 0x08, 0x00, 0x00, 0x00,
  0x10, 0x00, 0x00, 0x00, 0x01, 0x00, 0x00, 0x00, 0x80, 0xff, 0xff, 0xff,
  0xff, 0xff, 0xff, 0xff, 0x01, 0x00, 0x00, 0x00, 0x91, 0xb1, 0x5a, 0x3d,
  0x28, 0x00, 0x00, 0x00, 0x66, 0x75, 0x6e, 0x63, 0x74, 0x69, 0x6f, 0x6e,
  0x61, 0x6c, 0x5f, 0x31, 0x2f, 0x6d, 0x61, 0x78, 0x5f, 0x70, 0x6f, 0x6f,
  0x6c, 0x69, 0x6e, 0x67, 0x32, 0x64, 0x5f, 0x32, 0x5f, 0x31, 0x2f, 0x4d,
  0x61, 0x78, 0x50, 0x6f, 0x6f, 0x6c, 0x32, 0x64, 0x00, 0x00, 0x00, 0x00,
  0x04, 0x00, 0x00, 0x00, 0x01, 0x00, 0x00, 0x00, 0x08, 0x00, 0x00, 0x00,
  0x0f, 0x00, 0x00, 0x00, 0x18, 0x00, 0x00, 0x00, 0x06, 0xfc, 0xff, 0xff,
  0x00, 0x00, 0x00, 0x01, 0x18, 0x00, 0x00, 0x00, 0x28, 0x00, 0x00, 0x00,
  0x44, 0x00, 0x00, 0x00, 0x10, 0x00, 0x00, 0x00, 0x00, 0x00, 0x00, 0x09,
  0xc0, 0x00, 0x00, 0x00, 0x04, 0x00, 0x00, 0x00, 0xff, 0xff, 0xff, 0xff,
  0x10, 0x00, 0x00, 0x00, 0x1f, 0x00, 0x00, 0x00, 0x18, 0x00, 0x00, 0x00,
  0x7c, 0xf4, 0xff, 0xff, 0x08, 0x00, 0x00, 0x00, 0x10, 0x00, 0x00, 0x00,
  0x01, 0x00, 0x00, 0x00, 0x80, 0xff, 0xff, 0xff, 0xff, 0xff, 0xff, 0xff,
  0x01, 0x00, 0x00, 0x00, 0x91, 0xb1, 0x5a, 0x3d, 0x80, 0x00, 0x00, 0x00,
  0x66, 0x75, 0x6e, 0x63, 0x74, 0x69, 0x6f, 0x6e, 0x61, 0x6c, 0x5f, 0x31,
  0x2f, 0x63, 0x6f, 0x6e, 0x76, 0x32, 0x64, 0x5f, 0x32, 0x5f, 0x31, 0x2f,
  0x52, 0x65, 0x6c, 0x75, 0x3b, 0x66, 0x75, 0x6e, 0x63, 0x74, 0x69, 0x6f,
  0x6e, 0x61, 0x6c, 0x5f, 0x31, 0x2f, 0x63, 0x6f, 0x6e, 0x76, 0x32, 0x64,
  0x5f, 0x32, 0x5f, 0x31, 0x2f, 0x42, 0x69, 0x61, 0x73, 0x41, 0x64, 0x64,
  0x3b, 0x66, 0x75, 0x6e, 0x63, 0x74, 0x69, 0x6f, 0x6e, 0x61, 0x6c, 0x5f,
  0x31, 0x2f, 0x63, 0x6f, 0x6e, 0x76, 0x32, 0x64, 0x5f, 0x32, 0x5f, 0x31,
  0x2f, 0x63, 0x6f, 0x6e, 0x76, 0x6f, 0x6c, 0x75, 0x74, 0x69, 0x6f, 0x6e,
  0x3b, 0x66, 0x75, 0x6e, 0x63, 0x74, 0x69, 0x6f, 0x6e, 0x61, 0x6c, 0x5f,
  0x31, 0x2f, 0x63, 0x6f, 0x6e, 0x76, 0x32, 0x64, 0x5f, 0x32, 0x5f, 0x31,
  0x2f, 0x53, 0x71, 0x75, 0x65, 0x65, 0x7a, 0x65, 0x00, 0x00, 0x00, 0x00,
  0x04, 0x00, 0x00, 0x00, 0x01, 0x00, 0x00, 0x00, 0x10, 0x00, 0x00, 0x00,
  0x1f, 0x00, 0x00, 0x00, 0x18, 0x00, 0x00, 0x00, 0xf6, 0xfc, 0xff, 0xff,
  0x00, 0x00, 0x00, 0x01, 0x18, 0x00, 0x00, 0x00, 0x28, 0x00, 0x00, 0x00,
  0x44, 0x00, 0x00, 0x00, 0x0f, 0x00, 0x00, 0x00, 0x00, 0x00, 0x00, 0x09,
  0x68, 0x00, 0x00, 0x00, 0x04, 0x00, 0x00, 0x00, 0xff, 0xff, 0xff, 0xff,
  0x10, 0x00, 0x00, 0x00, 0x1f, 0x00, 0x00, 0x00, 0x10, 0x00, 0x00, 0x00,
  0x6c, 0xf5, 0xff, 0xff, 0x08, 0x00, 0x00, 0x00, 0x10, 0x00, 0x00, 0x00,
  0x01, 0x00, 0x00, 0x00, 0x80, 0xff, 0xff, 0xff, 0xff, 0xff, 0xff, 0xff,
  0x01, 0x00, 0x00, 0x00, 0x81, 0x0c, 0x96, 0x3c, 0x28, 0x00, 0x00, 0x00,
  0x66, 0x75, 0x6e, 0x63, 0x74, 0x69, 0x6f, 0x6e, 0x61, 0x6c, 0x5f, 0x31,
  0x2f, 0x6d, 0x61, 0x78, 0x5f, 0x70, 0x6f, 0x6f, 0x6c, 0x69, 0x6e, 0x67,
  0x32, 0x64, 0x5f, 0x31, 0x5f, 0x32, 0x2f, 0x4d, 0x61, 0x78, 0x50, 0x6f,
  0x6f, 0x6c, 0x32, 0x64, 0x00, 0x00, 0x00, 0x00, 0x04, 0x00, 0x00, 0x00,
  0x01, 0x00, 0x00, 0x00, 0x10, 0x00, 0x00, 0x00, 0x1f, 0x00, 0x00, 0x00,
  0x10, 0x00, 0x00, 0x00, 0x8e, 0xfd, 0xff, 0xff, 0x00, 0x00, 0x00, 0x01,
  0x18, 0x00, 0x00, 0x00, 0x28, 0x00, 0x00, 0x00, 0x44, 0x00, 0x00, 0x00,
  0x0e, 0x00, 0x00, 0x00, 0x00, 0x00, 0x00, 0x09, 0xc0, 0x00, 0x00, 0x00,
  0x04, 0x00, 0x00, 0x00, 0xff, 0xff, 0xff, 0xff, 0x20, 0x00, 0x00, 0x00,
  0x3e, 0x00, 0x00, 0x00, 0x10, 0x00, 0x00, 0x00, 0x04, 0xf6, 0xff, 0xff,
  0x08, 0x00, 0x00, 0x00, 0x10, 0x00, 0x00, 0x00, 0x01, 0x00, 0x00, 0x00,
  0x80, 0xff, 0xff, 0xff, 0xff, 0xff, 0xff, 0xff, 0x01, 0x00, 0x00, 0x00,
  0x81, 0x0c, 0x96, 0x3c, 0x80, 0x00, 0x00, 0x00, 0x66, 0x75, 0x6e, 0x63,
  0x74, 0x69, 0x6f, 0x6e, 0x61, 0x6c, 0x5f, 0x31, 0x2f, 0x63, 0x6f, 0x6e,
  0x76, 0x32, 0x64, 0x5f, 0x31, 0x5f, 0x32, 0x2f, 0x52, 0x65, 0x6c, 0x75,
  0x3b, 0x66, 0x75, 0x6e, 0x63, 0x74, 0x69, 0x6f, 0x6e, 0x61, 0x6c, 0x5f,
  0x31, 0x2f, 0x63, 0x6f, 0x6e, 0x76, 0x32, 0x64, 0x5f, 0x31, 0x5f, 0x32,
  0x2f, 0x42, 0x69, 0x61, 0x73, 0x41, 0x64, 0x64, 0x3b, 0x66, 0x75, 0x6e,
  0x63, 0x74, 0x69, 0x6f, 0x6e, 0x61, 0x6c, 0x5f, 0x31, 0x2f, 0x63, 0x6f,
  0x6e, 0x76, 0x32, 0x64, 0x5f, 0x31, 0x5f, 0x32, 0x2f, 0x63, 0x6f, 0x6e,
  0x76, 0x6f, 0x6c, 0x75, 0x74, 0x69, 0x6f, 0x6e, 0x3b, 0x66, 0x75, 0x6e,
  0x63, 0x74, 0x69, 0x6f, 0x6e, 0x61, 0x6c, 0x5f, 0x31, 0x2f, 0x63, 0x6f,
  0x6e, 0x76, 0x32, 0x64, 0x5f, 0x31, 0x5f, 0x32, 0x2f, 0x53, 0x71, 0x75,
  0x65, 0x65, 0x7a, 0x65, 0x00, 0x00, 0x00, 0x00, 0x04, 0x00, 0x00, 0x00,
  0x01, 0x00, 0x00, 0x00, 0x20, 0x00, 0x00, 0x00, 0x3e, 0x00, 0x00, 0x00,
  0x10, 0x00, 0x00, 0x00, 0x7e, 0xfe, 0xff, 0xff, 0x00, 0x00, 0x00, 0x01,
  0x18, 0x00, 0x00, 0x00, 0x28, 0x00, 0x00, 0x00, 0x48, 0x00, 0x00, 0x00,
  0x0d, 0x00, 0x00, 0x00, 0x00, 0x00, 0x00, 0x09, 0x68, 0x00, 0x00, 0x00,
  0x04, 0x00, 0x00, 0x00, 0xff, 0xff, 0xff, 0xff, 0x20, 0x00, 0x00, 0x00,
  0x3e, 0x00, 0x00, 0x00, 0x08, 0x00, 0x00, 0x00, 0xf4, 0xf6, 0xff, 0xff,
  0x08, 0x00, 0x00, 0x00, 0x14, 0x00, 0x00, 0x00, 0x01, 0x00, 0x00, 0x00,
  0x80, 0xff, 0xff, 0xff, 0xff, 0xff, 0xff, 0xff, 0x00, 0x00, 0x00, 0x00,
  0x01, 0x00, 0x00, 0x00, 0x47, 0x4c, 0xff, 0x3b, 0x26, 0x00, 0x00, 0x00,
  0x66, 0x75, 0x6e, 0x63, 0x74, 0x69, 0x6f, 0x6e, 0x61, 0x6c, 0x5f, 0x31,
  0x2f, 0x6d, 0x61, 0x78, 0x5f, 0x70, 0x6f, 0x6f, 0x6c, 0x69, 0x6e, 0x67,
  0x32, 0x64, 0x5f, 0x31, 0x2f, 0x4d, 0x61, 0x78, 0x50, 0x6f, 0x6f, 0x6c,
  0x32, 0x64, 0x00, 0x00, 0x04, 0x00, 0x00, 0x00, 0x01, 0x00, 0x00, 0x00,
  0x20, 0x00, 0x00, 0x00, 0x3e, 0x00, 0x00, 0x00, 0x08, 0x00, 0x00, 0x00,
  0x16, 0xff, 0xff, 0xff, 0x00, 0x00, 0x00, 0x01, 0x18, 0x00, 0x00, 0x00,
  0x28, 0x00, 0x00, 0x00, 0x44, 0x00, 0x00, 0x00, 0x0c, 0x00, 0x00, 0x00,
  0x00, 0x00, 0x00, 0x09, 0xb8, 0x00, 0x00, 0x00, 0x04, 0x00, 0x00, 0x00,
  0xff, 0xff, 0xff, 0xff, 0x40, 0x00, 0x00, 0x00, 0x7c, 0x00, 0x00, 0x00,
  0x08, 0x00, 0x00, 0x00, 0x8c, 0xf7, 0xff, 0xff, 0x08, 0x00, 0x00, 0x00,
  0x10, 0x00, 0x00, 0x00, 0x01, 0x00, 0x00, 0x00, 0x80, 0xff, 0xff, 0xff,
  0xff, 0xff, 0xff, 0xff, 0x01, 0x00, 0x00, 0x00, 0x47, 0x4c, 0xff, 0x3b,
  0x79, 0x00, 0x00, 0x00, 0x66, 0x75, 0x6e, 0x63, 0x74, 0x69, 0x6f, 0x6e,
  0x61, 0x6c, 0x5f, 0x31, 0x2f, 0x63, 0x6f, 0x6e, 0x76, 0x32, 0x64, 0x5f,
  0x31, 0x2f, 0x52, 0x65, 0x6c, 0x75, 0x3b, 0x66, 0x75, 0x6e, 0x63, 0x74,
  0x69, 0x6f, 0x6e, 0x61, 0x6c, 0x5f, 0x31, 0x2f, 0x63, 0x6f, 0x6e, 0x76,
  0x32, 0x64, 0x5f, 0x31, 0x2f, 0x42, 0x69, 0x61, 0x73, 0x41, 0x64, 0x64,
  0x3b, 0x66, 0x75, 0x6e, 0x63, 0x74, 0x69, 0x6f, 0x6e, 0x61, 0x6c, 0x5f,
  0x31, 0x2f, 0x63, 0x6f, 0x6e, 0x76, 0x32, 0x64, 0x5f, 0x31, 0x2f, 0x63,
  0x6f, 0x6e, 0x76, 0x6f, 0x6c, 0x75, 0x74, 0x69, 0x6f, 0x6e, 0x3b, 0x66,
  0x75, 0x6e, 0x63, 0x74, 0x69, 0x6f, 0x6e, 0x61, 0x6c, 0x5f, 0x31, 0x2f,
  0x63, 0x6f, 0x6e, 0x76, 0x32, 0x64, 0x5f, 0x31, 0x2f, 0x53, 0x71, 0x75,
  0x65, 0x65, 0x7a, 0x65, 0x31, 0x00, 0x00, 0x00, 0x04, 0x00, 0x00, 0x00,
  0x01, 0x00, 0x00, 0x00, 0x40, 0x00, 0x00, 0x00, 0x7c, 0x00, 0x00, 0x00,
  0x08, 0x00, 0x00, 0x00, 0x00, 0x00, 0x16, 0x00, 0x20, 0x00, 0x1c, 0x00,
  0x1b, 0x00, 0x14, 0x00, 0x10, 0x00, 0x0c, 0x00, 0x00, 0x00, 0x00, 0x00,
  0x08, 0x00, 0x07, 0x00, 0x16, 0x00, 0x00, 0x00, 0x00, 0x00, 0x00, 0x01,
  0x18, 0x00, 0x00, 0x00, 0x28, 0x00, 0x00, 0x00, 0x48, 0x00, 0x00, 0x00,
  0x0b, 0x00, 0x00, 0x00, 0x00, 0x00, 0x00, 0x09, 0x50, 0x00, 0x00, 0x00,
  0x04, 0x00, 0x00, 0x00, 0xff, 0xff, 0xff, 0xff, 0x40, 0x00, 0x00, 0x00,
  0x7c, 0x00, 0x00, 0x00, 0x01, 0x00, 0x00, 0x00, 0x8c, 0xf8, 0xff, 0xff,
  0x08, 0x00, 0x00, 0x00, 0x14, 0x00, 0x00, 0x00, 0x01, 0x00, 0x00, 0x00,
  0x80, 0xff, 0xff, 0xff, 0xff, 0xff, 0xff, 0xff, 0x00, 0x00, 0x00, 0x00,
  0x01, 0x00, 0x00, 0x00, 0x81, 0x80, 0x80, 0x3b, 0x0c, 0x00, 0x00, 0x00,
  0x74, 0x66, 0x6c, 0x2e, 0x71, 0x75, 0x61, 0x6e, 0x74, 0x69, 0x7a, 0x65,
  0x00, 0x00, 0x00, 0x00, 0x04, 0x00, 0x00, 0x00, 0x01, 0x00, 0x00, 0x00,
  0x40, 0x00, 0x00, 0x00, 0x7c, 0x00, 0x00, 0x00, 0x01, 0x00, 0x00, 0x00,
  0x72, 0xf8, 0xff, 0xff, 0x00, 0x00, 0x00, 0x01, 0x14, 0x00, 0x00, 0x00,
  0x88, 0x00, 0x00, 0x00, 0x0a, 0x00, 0x00, 0x00, 0x00, 0x00, 0x00, 0x09,
  0x94, 0x00, 0x00, 0x00, 0xf4, 0xf8, 0xff, 0xff, 0x08, 0x00, 0x00, 0x00,
  0x4c, 0x00, 0x00, 0x00, 0x08, 0x00, 0x00, 0x00, 0x00, 0x00, 0x00, 0x00,
  0x00, 0x00, 0x00, 0x00, 0x00, 0x00, 0x00, 0x00, 0x00, 0x00, 0x00, 0x00,
  0x00, 0x00, 0x00, 0x00, 0x00, 0x00, 0x00, 0x00, 0x00, 0x00, 0x00, 0x00,
  0x00, 0x00, 0x00, 0x00, 0x00, 0x00, 0x00, 0x00, 0x00, 0x00, 0x00, 0x00,
  0x00, 0x00, 0x00, 0x00, 0x00, 0x00, 0x00, 0x00, 0x00, 0x00, 0x00, 0x00,
  0x00, 0x00, 0x00, 0x00, 0x00, 0x00, 0x00, 0x00, 0x00, 0x00, 0x00, 0x00,
  0x00, 0x00, 0x00, 0x00, 0x08, 0x00, 0x00, 0x00, 0x9d, 0xb0, 0xa4, 0x3b,
  0xd4, 0xe8, 0x1f, 0x3b, 0xba, 0x52, 0x27, 0x3b, 0x57, 0xb6, 0x3e, 0x3b,
  0xca, 0xaf, 0x5c, 0x3b, 0x32, 0x0e, 0x18, 0x3b, 0x19, 0x16, 0xa6, 0x3b,
  0xec, 0x0f, 0xfb, 0x3a, 0x12, 0x00, 0x00, 0x00, 0x74, 0x66, 0x6c, 0x2e,
  0x70, 0x73, 0x65, 0x75, 0x64, 0x6f, 0x5f, 0x71, 0x63, 0x6f, 0x6e, 0x73,
  0x74, 0x37, 0x00, 0x00, 0x04, 0x00, 0x00, 0x00, 0x08, 0x00, 0x00, 0x00,
  0x03, 0x00, 0x00, 0x00, 0x03, 0x00, 0x00, 0x00, 0x01, 0x00, 0x00, 0x00,
  0x32, 0xf9, 0xff, 0xff, 0x00, 0x00, 0x00, 0x01, 0x14, 0x00, 0x00, 0x00,
  0x84, 0x00, 0x00, 0x00, 0x09, 0x00, 0x00, 0x00, 0x00, 0x00, 0x00, 0x02,
  0x90, 0x00, 0x00, 0x00, 0xb4, 0xf9, 0xff, 0xff, 0x08, 0x00, 0x00, 0x00,
  0x48, 0x00, 0x00, 0x00, 0x08, 0x00, 0x00, 0x00, 0x00, 0x00, 0x00, 0x00,
  0x00, 0x00, 0x00, 0x00, 0x00, 0x00, 0x00, 0x00, 0x00, 0x00, 0x00, 0x00,
  0x00, 0x00, 0x00, 0x00, 0x00, 0x00, 0x00, 0x00, 0x00, 0x00, 0x00, 0x00,
  0x00, 0x00, 0x00, 0x00, 0x00, 0x00, 0x00, 0x00, 0x00, 0x00, 0x00, 0x00,
  0x00, 0x00, 0x00, 0x00, 0x00, 0x00, 0x00, 0x00, 0x00, 0x00, 0x00, 0x00,
  0x00, 0x00, 0x00, 0x00, 0x00, 0x00, 0x00, 0x00, 0x00, 0x00, 0x00, 0x00,
  0x08, 0x00, 0x00, 0x00, 0xf4, 0x55, 0xa5, 0x37, 0x5e, 0x89, 0x20, 0x37,
  0xb5, 0xfa, 0x27, 0x37, 0xce, 0x75, 0x3f, 0x37, 0x58, 0x8d, 0x5d, 0x37,
  0xd9, 0xa6, 0x18, 0x37, 0xd6, 0xbc, 0xa6, 0x37, 0xf9, 0x0b, 0xfc, 0x36,
  0x12, 0x00, 0x00, 0x00, 0x74, 0x66, 0x6c, 0x2e, 0x70, 0x73, 0x65, 0x75,
  0x64, 0x6f, 0x5f, 0x71, 0x63, 0x6f, 0x6e, 0x73, 0x74, 0x36, 0x00, 0x00,
  0x01, 0x00, 0x00, 0x00, 0x08, 0x00, 0x00, 0x00, 0xe2, 0xf9, 0xff, 0xff,
  0x00, 0x00, 0x00, 0x01, 0x14, 0x00, 0x00, 0x00, 0xe8, 0x00, 0x00, 0x00,
  0x08, 0x00, 0x00, 0x00, 0x00, 0x00, 0x00, 0x09, 0xf4, 0x00, 0x00, 0x00,
  0x64, 0xfa, 0xff, 0xff, 0x08, 0x00, 0x00, 0x00, 0x8c, 0x00, 0x00, 0x00,
  0x10, 0x00, 0x00, 0x00, 0x00, 0x00, 0x00, 0x00, 0x00, 0x00, 0x00, 0x00,
  0x00, 0x00, 0x00, 0x00, 0x00, 0x00, 0x00, 0x00, 0x00, 0x00, 0x00, 0x00,
  0x00, 0x00, 0x00, 0x00, 0x00, 0x00, 0x00, 0x00, 0x00, 0x00, 0x00, 0x00,
  0x00, 0x00, 0x00, 0x00, 0x00, 0x00, 0x00, 0x00, 0x00, 0x00, 0x00, 0x00,
  0x00, 0x00, 0x00, 0x00, 0x00, 0x00, 0x00, 0x00, 0x00, 0x00, 0x00, 0x00,
  0x00, 0x00, 0x00, 0x00, 0x00, 0x00, 0x00, 0x00, 0x00, 0x00, 0x00, 0x00,
  0x00, 0x00, 0x00, 0x00, 0x00, 0x00, 0x00, 0x00, 0x00, 0x00, 0x00, 0x00,
  0x00, 0x00, 0x00, 0x00, 0x00, 0x00, 0x00, 0x00, 0x00, 0x00, 0x00, 0x00,
  0x00, 0x00, 0x00, 0x00, 0x00, 0x00, 0x00, 0x00, 0x00, 0x00, 0x00, 0x00,
  0x00, 0x00, 0x00, 0x00, 0x00, 0x00, 0x00, 0x00, 0x00, 0x00, 0x00, 0x00,
  0x00, 0x00, 0x00, 0x00, 0x00, 0x00, 0x00, 0x00, 0x00, 0x00, 0x00, 0x00,
  0x00, 0x00, 0x00, 0x00, 0x10, 0x00, 0x00, 0x00, 0xf6, 0xa8, 0x0e, 0x3b,
  0x04, 0x94, 0x0c, 0x3b, 0x04, 0x40, 0x53, 0x3b, 0xc5, 0xd2, 0x57, 0x3b,
  0xae, 0x63, 0xcb, 0x3b, 0x50, 0x4b, 0x60, 0x3b, 0x9b, 0x91, 0x24, 0x3b,
  0x60, 0x27, 0x4b, 0x3b, 0x34, 0x86, 0x60, 0x3b, 0x78, 0x97, 0x35, 0x3b,
  0x76, 0xb3, 0x60, 0x3b, 0x66, 0x88, 0x7f, 0x3b, 0x27, 0xd2, 0x95, 0x3b,
  0xb0, 0xde, 0x5c, 0x3b, 0xb1, 0xd6, 0x59, 0x3b, 0x5c, 0x4b, 0xe7, 0x3a,
  0x12, 0x00, 0x00, 0x00, 0x74, 0x66, 0x6c, 0x2e, 0x70, 0x73, 0x65, 0x75,
  0x64, 0x6f, 0x5f, 0x71, 0x63, 0x6f, 0x6e, 0x73, 0x74, 0x35, 0x00, 0x00,
  0x04, 0x00, 0x00, 0x00, 0x10, 0x00, 0x00, 0x00, 0x03, 0x00, 0x00, 0x00,
  0x03, 0x00, 0x00, 0x00, 0x08, 0x00, 0x00, 0x00, 0x02, 0xfb, 0xff, 0xff,
  0x00, 0x00, 0x00, 0x01, 0x14, 0x00, 0x00, 0x00, 0xe4, 0x00, 0x00, 0x00,
  0x07, 0x00, 0x00, 0x00, 0x00, 0x00, 0x00, 0x02, 0xf0, 0x00, 0x00, 0x00,
  0x84, 0xfb, 0xff, 0xff, 0x08, 0x00, 0x00, 0x00, 0x88, 0x00, 0x00, 0x00,
  0x10, 0x00, 0x00, 0x00, 0x00, 0x00, 0x00, 0x00, 0x00, 0x00, 0x00, 0x00,
  0x00, 0x00, 0x00, 0x00, 0x00, 0x00, 0x00, 0x00, 0x00, 0x00, 0x00, 0x00,
  0x00, 0x00, 0x00, 0x00, 0x00, 0x00, 0x00, 0x00, 0x00, 0x00, 0x00, 0x00,
  0x00, 0x00, 0x00, 0x00, 0x00, 0x00, 0x00, 0x00, 0x00, 0x00, 0x00, 0x00,
  0x00, 0x00, 0x00, 0x00, 0x00, 0x00, 0x00, 0x00, 0x00, 0x00, 0x00, 0x00,
  0x00, 0x00, 0x00, 0x00, 0x00, 0x00, 0x00, 0x00, 0x00, 0x00, 0x00, 0x00,
  0x00, 0x00, 0x00, 0x00, 0x00, 0x00, 0x00, 0x00, 0x00, 0x00, 0x00, 0x00,
  0x00, 0x00, 0x00, 0x00, 0x00, 0x00, 0x00, 0x00, 0x00, 0x00, 0x00, 0x00,
  0x00, 0x00, 0x00, 0x00, 0x00, 0x00, 0x00, 0x00, 0x00, 0x00, 0x00, 0x00,
  0x00, 0x00, 0x00, 0x00, 0x00, 0x00, 0x00, 0x00, 0x00, 0x00, 0x00, 0x00,
  0x00, 0x00, 0x00, 0x00, 0x00, 0x00, 0x00, 0x00, 0x00, 0x00, 0x00, 0x00,
  0x10, 0x00, 0x00, 0x00, 0xcf, 0x44, 0x8e, 0x37, 0x53, 0x31, 0x8c, 0x37,
  0xb6, 0xab, 0xd2, 0x37, 0x41, 0x3b, 0xd7, 0x37, 0xe4, 0xd4, 0x4a, 0x38,
  0xd9, 0xad, 0xdf, 0x37, 0x12, 0x1e, 0xa4, 0x37, 0xc1, 0x98, 0xca, 0x37,
  0x94, 0xe8, 0xdf, 0x37, 0xfc, 0x17, 0xb5, 0x37, 0xb6, 0x15, 0xe0, 0x37,
  0x01, 0xd5, 0xfe, 0x37, 0xf9, 0x68, 0x15, 0x38, 0xa1, 0x43, 0xdc, 0x37,
  0xc2, 0x3d, 0xd9, 0x37, 0xfb, 0xa8, 0x66, 0x37, 0x12, 0x00, 0x00, 0x00,
  0x74, 0x66, 0x6c, 0x2e, 0x70, 0x73, 0x65, 0x75, 0x64, 0x6f, 0x5f, 0x71,
  0x63, 0x6f, 0x6e, 0x73, 0x74, 0x34, 0x00, 0x00, 0x01, 0x00, 0x00, 0x00,
  0x10, 0x00, 0x00, 0x00, 0x12, 0xfc, 0xff, 0xff, 0x00, 0x00, 0x00, 0x01,
  0x14, 0x00, 0x00, 0x00, 0x48, 0x01, 0x00, 0x00, 0x06, 0x00, 0x00, 0x00,
  0x00, 0x00, 0x00, 0x09, 0x54, 0x01, 0x00, 0x00, 0x94, 0xfc, 0xff, 0xff,
  0x08, 0x00, 0x00, 0x00, 0xcc, 0x00, 0x00, 0x00, 0x18, 0x00, 0x00, 0x00,
  0x00, 0x00, 0x00, 0x00, 0x00, 0x00, 0x00, 0x00, 0x00, 0x00, 0x00, 0x00,
  0x00, 0x00, 0x00, 0x00, 0x00, 0x00, 0x00, 0x00, 0x00, 0x00, 0x00, 0x00,
  0x00, 0x00, 0x00, 0x00, 0x00, 0x00, 0x00, 0x00, 0x00, 0x00, 0x00, 0x00,
  0x00, 0x00, 0x00, 0x00, 0x00, 0x00, 0x00, 0x00, 0x00, 0x00, 0x00, 0x00,
  0x00, 0x00, 0x00, 0x00, 0x00, 0x00, 0x00, 0x00, 0x00, 0x00, 0x00, 0x00,
  0x00, 0x00, 0x00, 0x00, 0x00, 0x00, 0x00, 0x00, 0x00, 0x00, 0x00, 0x00,
  0x00, 0x00, 0x00, 0x00, 0x00, 0x00, 0x00, 0x00, 0x00, 0x00, 0x00, 0x00,
  0x00, 0x00, 0x00, 0x00, 0x00, 0x00, 0x00, 0x00, 0x00, 0x00, 0x00, 0x00,
  0x00, 0x00, 0x00, 0x00, 0x00, 0x00, 0x00, 0x00, 0x00, 0x00, 0x00, 0x00,
  0x00, 0x00, 0x00, 0x00, 0x00, 0x00, 0x00, 0x00, 0x00, 0x00, 0x00, 0x00,
  0x00, 0x00, 0x00, 0x00, 0x00, 0x00, 0x00, 0x00, 0x00, 0x00, 0x00, 0x00,
  0x00, 0x00, 0x00, 0x00, 0x00, 0x00, 0x00, 0x00, 0x00, 0x00, 0x00, 0x00,
  0x00, 0x00, 0x00, 0x00, 0x00, 0x00, 0x00, 0x00, 0x00, 0x00, 0x00, 0x00,
  0x00, 0x00, 0x00, 0x00, 0x00, 0x00, 0x00, 0x00, 0x00, 0x00, 0x00, 0x00,
  0x00, 0x00, 0x00, 0x00, 0x00, 0x00, 0x00, 0x00, 0x00, 0x00, 0x00, 0x00,
  0x00, 0x00, 0x00, 0x00, 0x00, 0x00, 0x00, 0x00, 0x00, 0x00, 0x00, 0x00,
  0x00, 0x00, 0x00, 0x00, 0x18, 0x00, 0x00, 0x00, 0xf6, 0xba, 0x58, 0x3b,
  0x00, 0x6a, 0x99, 0x3a, 0xf9, 0x05, 0x2e, 0x3b, 0x84, 0x1b, 0xa4, 0x3b,
  0x44, 0x4e, 0xb3, 0x3b, 0x59, 0x2f, 0x38, 0x3b, 0x18, 0x51, 0x73, 0x3b,
  0x6b, 0x16, 0x69, 0x3b, 0x1e, 0xf9, 0x7e, 0x3b, 0x44, 0xbf, 0x5d, 0x3b,
  0x71, 0x24, 0x5a, 0x3b, 0x26, 0x19, 0x22, 0x3b, 0x4b, 0xb9, 0xfc, 0x3a,
  0x83, 0xfa, 0x40, 0x3b, 0x42, 0x59, 0x94, 0x3b, 0x75, 0x26, 0x5c, 0x3b,
  0x18, 0xf4, 0xb3, 0x3b, 0x8f, 0x8a, 0x7b, 0x3b, 0xeb, 0x16, 0x3f, 0x3b,
  0x3e, 0x66, 0x4a, 0x3b, 0xe7, 0x06, 0x52, 0x3b, 0xe5, 0x13, 0xa5, 0x3b,
  0x21, 0x59, 0xa9, 0x3b, 0xe7, 0xbd, 0x29, 0x3b, 0x12, 0x00, 0x00, 0x00,
  0x74, 0x66, 0x6c, 0x2e, 0x70, 0x73, 0x65, 0x75, 0x64, 0x6f, 0x5f, 0x71,
  0x63, 0x6f, 0x6e, 0x73, 0x74, 0x33, 0x00, 0x00, 0x04, 0x00, 0x00, 0x00,
  0x18, 0x00, 0x00, 0x00, 0x03, 0x00, 0x00, 0x00, 0x03, 0x00, 0x00, 0x00,
  0x10, 0x00, 0x00, 0x00, 0x92, 0xfd, 0xff, 0xff, 0x00, 0x00, 0x00, 0x01,
  0x14, 0x00, 0x00, 0x00, 0x44, 0x01, 0x00, 0x00, 0x05, 0x00, 0x00, 0x00,
  0x00, 0x00, 0x00, 0x02, 0x50, 0x01, 0x00, 0x00, 0x14, 0xfe, 0xff, 0xff,
  0x08, 0x00, 0x00, 0x00, 0xc8, 0x00, 0x00, 0x00, 0x18, 0x00, 0x00, 0x00,
  0x00, 0x00, 0x00, 0x00, 0x00, 0x00, 0x00, 0x00, 0x00, 0x00, 0x00, 0x00,
  0x00, 0x00, 0x00, 0x00, 0x00, 0x00, 0x00, 0x00, 0x00, 0x00, 0x00, 0x00,
  0x00, 0x00, 0x00, 0x00, 0x00, 0x00, 0x00, 0x00, 0x00, 0x00, 0x00, 0x00,
  0x00, 0x00, 0x00, 0x00, 0x00, 0x00, 0x00, 0x00, 0x00, 0x00, 0x00, 0x00,
  0x00, 0x00, 0x00, 0x00, 0x00, 0x00, 0x00, 0x00, 0x00, 0x00, 0x00, 0x00,
  0x00, 0x00, 0x00, 0x00, 0x00, 0x00, 0x00, 0x00, 0x00, 0x00, 0x00, 0x00,
  0x00, 0x00, 0x00, 0x00, 0x00, 0x00, 0x00, 0x00, 0x00, 0x00, 0x00, 0x00,
  0x00, 0x00, 0x00, 0x00, 0x00, 0x00, 0x00, 0x00, 0x00, 0x00, 0x00, 0x00,
  0x00, 0x00, 0x00, 0x00, 0x00, 0x00, 0x00, 0x00, 0x00, 0x00, 0x00, 0x00,
  0x00, 0x00, 0x00, 0x00, 0x00, 0x00, 0x00, 0x00, 0x00, 0x00, 0x00, 0x00,
  0x00, 0x00, 0x00, 0x00, 0x00, 0x00, 0x00, 0x00, 0x00, 0x00, 0x00, 0x00,
  0x00, 0x00, 0x00, 0x00, 0x00, 0x00, 0x00, 0x00, 0x00, 0x00, 0x00, 0x00,
  0x00, 0x00, 0x00, 0x00, 0x00, 0x00, 0x00, 0x00, 0x00, 0x00, 0x00, 0x00,
  0x00, 0x00, 0x00, 0x00, 0x00, 0x00, 0x00, 0x00, 0x00, 0x00, 0x00, 0x00,
  0x00, 0x00, 0x00, 0x00, 0x00, 0x00, 0x00, 0x00, 0x00, 0x00, 0x00, 0x00,
  0x00, 0x00, 0x00, 0x00, 0x00, 0x00, 0x00, 0x00, 0x00, 0x00, 0x00, 0x00,
  0x18, 0x00, 0x00, 0x00, 0x44, 0x10, 0x7e, 0x38, 0x35, 0xd7, 0xb3, 0x37,
  0x00, 0x00, 0x4c, 0x38, 0x47, 0x60, 0xc0, 0x38, 0x3c, 0x31, 0xd2, 0x38,
  0x7a, 0xe9, 0x57, 0x38, 0x66, 0x9d, 0x8e, 0x38, 0x85, 0x9e, 0x88, 0x38,
  0x6c, 0x72, 0x95, 0x38, 0xe7, 0xf8, 0x81, 0x38, 0x04, 0xb8, 0x7f, 0x38,
  0x4e, 0x05, 0x3e, 0x38, 0xea, 0x20, 0x14, 0x38, 0x6b, 0x38, 0x62, 0x38,
  0x17, 0xe7, 0xad, 0x38, 0x49, 0x09, 0x81, 0x38, 0xa0, 0xf3, 0xd2, 0x38,
  0x79, 0x6f, 0x93, 0x38, 0x86, 0x01, 0x60, 0x38, 0x96, 0x43, 0x6d, 0x38,
  0x9b, 0x34, 0x76, 0x38, 0x71, 0x83, 0xc1, 0x38, 0xfe, 0x84, 0xc6, 0x38,
  0x20, 0xfb, 0x46, 0x38, 0x12, 0x00, 0x00, 0x00, 0x74, 0x66, 0x6c, 0x2e,
  0x70, 0x73, 0x65, 0x75, 0x64, 0x6f, 0x5f, 0x71, 0x63, 0x6f, 0x6e, 0x73,
  0x74, 0x32, 0x00, 0x00, 0x01, 0x00, 0x00, 0x00, 0x18, 0x00, 0x00, 0x00,
  0x02, 0xff, 0xff, 0xff, 0x00, 0x00, 0x00, 0x01, 0x14, 0x00, 0x00, 0x00,
  0x4c, 0x00, 0x00, 0x00, 0x04, 0x00, 0x00, 0x00, 0x00, 0x00, 0x00, 0x09,
  0x58, 0x00, 0x00, 0x00, 0x84, 0xff, 0xff, 0xff, 0x08, 0x00, 0x00, 0x00,
  0x24, 0x00, 0x00, 0x00, 0x03, 0x00, 0x00, 0x00, 0x00, 0x00, 0x00, 0x00,
  0x00, 0x00, 0x00, 0x00, 0x00, 0x00, 0x00, 0x00, 0x00, 0x00, 0x00, 0x00,
  0x00, 0x00, 0x00, 0x00, 0x00, 0x00, 0x00, 0x00, 0x00, 0x00, 0x00, 0x00,
  0x03, 0x00, 0x00, 0x00, 0x18, 0x14, 0x02, 0x3c, 0x38, 0x05, 0xc1, 0x3b,
  0xc5, 0x00, 0xa6, 0x3b, 0x12, 0x00, 0x00, 0x00, 0x74, 0x66, 0x6c, 0x2e,
  0x70, 0x73, 0x65, 0x75, 0x64, 0x6f, 0x5f, 0x71, 0x63, 0x6f, 0x6e, 0x73,
  0x74, 0x31, 0x00, 0x00, 0x02, 0x00, 0x00, 0x00, 0x03, 0x00, 0x00, 0x00,
  0x18, 0x00, 0x00, 0x00, 0x7e, 0xff, 0xff, 0xff, 0x00, 0x00, 0x00, 0x01,
  0x20, 0x00, 0x00, 0x00, 0x54, 0x00, 0x00, 0x00, 0x03, 0x00, 0x00, 0x00,
  0x00, 0x00, 0x00, 0x02, 0x60, 0x00, 0x00, 0x00, 0x0c, 0x00, 0x0c, 0x00,
  0x00, 0x00, 0x00, 0x00, 0x08, 0x00, 0x04, 0x00, 0x0c, 0x00, 0x00, 0x00,
  0x08, 0x00, 0x00, 0x00, 0x20, 0x00, 0x00, 0x00, 0x03, 0x00, 0x00, 0x00,
  0x00, 0x00, 0x00, 0x00, 0x00, 0x00, 0x00, 0x00, 0x00, 0x00, 0x00, 0x00,
  0x00, 0x00, 0x00, 0x00, 0x00, 0x00, 0x00, 0x00, 0x00, 0x00, 0x00, 0x00,
  0x03, 0x00, 0x00, 0x00, 0x3f, 0x4b, 0x98, 0x38, 0x3f, 0xfc, 0x61, 0x38,
  0x93, 0x5a, 0x42, 0x38, 0x11, 0x00, 0x00, 0x00, 0x74, 0x66, 0x6c, 0x2e,
  0x70, 0x73, 0x65, 0x75, 0x64, 0x6f, 0x5f, 0x71, 0x63, 0x6f, 0x6e, 0x73,
  0x74, 0x00, 0x00, 0x00, 0x01, 0x00, 0x00, 0x00, 0x03, 0x00, 0x00, 0x00,
  0x00, 0x00, 0x16, 0x00, 0x1c, 0x00, 0x18, 0x00, 0x17, 0x00, 0x10, 0x00,
  0x0c, 0x00, 0x08, 0x00, 0x00, 0x00, 0x00, 0x00, 0x00, 0x00, 0x07, 0x00,
  0x16, 0x00, 0x00, 0x00, 0x00, 0x00, 0x00, 0x01, 0x14, 0x00, 0x00, 0x00,
  0x14, 0x00, 0x00, 0x00, 0x02, 0x00, 0x00, 0x00, 0x00, 0x00, 0x00, 0x02,
  0x1c, 0x00, 0x00, 0x00, 0x98, 0xff, 0xff, 0xff, 0x0e, 0x00, 0x00, 0x00,
  0x61, 0x72, 0x69, 0x74, 0x68, 0x2e, 0x63, 0x6f, 0x6e, 0x73, 0x74, 0x61,
  0x6e, 0x74, 0x00, 0x00, 0x01, 0x00, 0x00, 0x00, 0x02, 0x00, 0x00, 0x00,
  0x00, 0x00, 0x16, 0x00, 0x1c, 0x00, 0x18, 0x00, 0x00, 0x00, 0x14, 0x00,
  0x10, 0x00, 0x0c, 0x00, 0x00, 0x00, 0x00, 0x00, 0x08, 0x00, 0x07, 0x00,
  0x16, 0x00, 0x00, 0x00, 0x00, 0x00, 0x00, 0x01, 0x14, 0x00, 0x00, 0x00,
  0x28, 0x00, 0x00, 0x00, 0x28, 0x00, 0x00, 0x00, 0x01, 0x00, 0x00, 0x00,
  0x44, 0x00, 0x00, 0x00, 0x04, 0x00, 0x00, 0x00, 0xff, 0xff, 0xff, 0xff,
  0x40, 0x00, 0x00, 0x00, 0x7c, 0x00, 0x00, 0x00, 0x01, 0x00, 0x00, 0x00,
  0x04, 0x00, 0x04, 0x00, 0x04, 0x00, 0x00, 0x00, 0x1e, 0x00, 0x00, 0x00,
  0x73, 0x65, 0x72, 0x76, 0x69, 0x6e, 0x67, 0x5f, 0x64, 0x65, 0x66, 0x61,
  0x75, 0x6c, 0x74, 0x5f, 0x6b, 0x65, 0x72, 0x61, 0x73, 0x5f, 0x74, 0x65,
  0x6e, 0x73, 0x6f, 0x72, 0x3a, 0x30, 0x00, 0x00, 0x04, 0x00, 0x00, 0x00,
  0x01, 0x00, 0x00, 0x00, 0x40, 0x00, 0x00, 0x00, 0x7c, 0x00, 0x00, 0x00,
  0x01, 0x00, 0x00, 0x00, 0x07, 0x00, 0x00, 0x00, 0x94, 0x00, 0x00, 0x00,
  0x74, 0x00, 0x00, 0x00, 0x54, 0x00, 0x00, 0x00, 0x40, 0x00, 0x00, 0x00,
  0x2c, 0x00, 0x00, 0x00, 0x18, 0x00, 0x00, 0x00, 0x04, 0x00, 0x00, 0x00,
  0xb0, 0xff, 0xff, 0xff, 0x06, 0x00, 0x00, 0x00, 0x02, 0x00, 0x00, 0x00,
  0x00, 0x00, 0x00, 0x06, 0xc0, 0xff, 0xff, 0xff, 0x19, 0x00, 0x00, 0x00,
  0x02, 0x00, 0x00, 0x00, 0x00, 0x00, 0x00, 0x19, 0xd0, 0xff, 0xff, 0xff,
  0x09, 0x00, 0x00, 0x00, 0x04, 0x00, 0x00, 0x00, 0x00, 0x00, 0x00, 0x09,
  0xe0, 0xff, 0xff, 0xff, 0x28, 0x00, 0x00, 0x00, 0x02, 0x00, 0x00, 0x00,
  0x00, 0x00, 0x00, 0x28, 0xf0, 0xff, 0xff, 0xff, 0x11, 0x00, 0x00, 0x00,
  0x02, 0x00, 0x00, 0x00, 0x00, 0x00, 0x00, 0x11, 0x0c, 0x00, 0x10, 0x00,
  0x0f, 0x00, 0x00, 0x00, 0x08, 0x00, 0x04, 0x00, 0x0c, 0x00, 0x00, 0x00,
  0x03, 0x00, 0x00, 0x00, 0x03, 0x00, 0x00, 0x00, 0x00, 0x00, 0x00, 0x03,
  0x0c, 0x00, 0x0c, 0x00, 0x0b, 0x00, 0x00, 0x00, 0x00, 0x00, 0x04, 0x00,
  0x0c, 0x00, 0x00, 0x00, 0x72, 0x00, 0x00, 0x00, 0x00, 0x00, 0x00, 0x72,
};
const unsigned int tiny_cnn_model_big_tflite_len = 10752;
