const unsigned char tiny_cnn_model_big_tflite[] = {
  0x1c, 0x00, 0x00, 0x00, 0x54, 0x46, 0x4c, 0x33, 0x14, 0x00, 0x20, 0x00,
  0x1c, 0x00, 0x18, 0x00, 0x14, 0x00, 0x10, 0x00, 0x0c, 0x00, 0x00, 0x00,
  0x08, 0x00, 0x04, 0x00, 0x14, 0x00, 0x00, 0x00, 0x1c, 0x00, 0x00, 0x00,
  0x8c, 0x00, 0x00, 0x00, 0x0c, 0x01, 0x00, 0x00, 0xfc, 0x15, 0x00, 0x00,
  0x0c, 0x16, 0x00, 0x00, 0xd8, 0x28, 0x00, 0x00, 0x03, 0x00, 0x00, 0x00,
  0x01, 0x00, 0x00, 0x00, 0x04, 0x00, 0x00, 0x00, 0x9a, 0xe9, 0xff, 0xff,
  0x0c, 0x00, 0x00, 0x00, 0x1c, 0x00, 0x00, 0x00, 0x3c, 0x00, 0x00, 0x00,
  0x0f, 0x00, 0x00, 0x00, 0x73, 0x65, 0x72, 0x76, 0x69, 0x6e, 0x67, 0x5f,
  0x64, 0x65, 0x66, 0x61, 0x75, 0x6c, 0x74, 0x00, 0x01, 0x00, 0x00, 0x00,
  0x04, 0x00, 0x00, 0x00, 0x68, 0xff, 0xff, 0xff, 0x14, 0x00, 0x00, 0x00,
  0x04, 0x00, 0x00, 0x00, 0x08, 0x00, 0x00, 0x00, 0x6f, 0x75, 0x74, 0x70,
  0x75, 0x74, 0x5f, 0x30, 0x00, 0x00, 0x00, 0x00, 0x01, 0x00, 0x00, 0x00,
  0x04, 0x00, 0x00, 0x00, 0xa6, 0xe9, 0xff, 0xff, 0x04, 0x00, 0x00, 0x00,
  0x0c, 0x00, 0x00, 0x00, 0x6b, 0x65, 0x72, 0x61, 0x73, 0x5f, 0x74, 0x65,
  0x6e, 0x73, 0x6f, 0x72, 0x00, 0x00, 0x00, 0x00, 0x03, 0x00, 0x00, 0x00,
  0x5c, 0x00, 0x00, 0x00, 0x2c, 0x00, 0x00, 0x00, 0x04, 0x00, 0x00, 0x00,
  0xb8, 0xff, 0xff, 0xff, 0x18, 0x00, 0x00, 0x00, 0x04, 0x00, 0x00, 0x00,
  0x13, 0x00, 0x00, 0x00, 0x43, 0x4f, 0x4e, 0x56, 0x45, 0x52, 0x53, 0x49,
  0x4f, 0x4e, 0x5f, 0x4d, 0x45, 0x54, 0x41, 0x44, 0x41, 0x54, 0x41, 0x00,
  0xdc, 0xff, 0xff, 0xff, 0x17, 0x00, 0x00, 0x00, 0x04, 0x00, 0x00, 0x00,
  0x13, 0x00, 0x00, 0x00, 0x6d, 0x69, 0x6e, 0x5f, 0x72, 0x75, 0x6e, 0x74,
  0x69, 0x6d, 0x65, 0x5f, 0x76, 0x65, 0x72, 0x73, 0x69, 0x6f, 0x6e, 0x00,
  0x08, 0x00, 0x0c, 0x00, 0x08, 0x00, 0x04, 0x00, 0x08, 0x00, 0x00, 0x00,
  0x16, 0x00, 0x00, 0x00, 0x04, 0x00, 0x00, 0x00, 0x13, 0x00, 0x00, 0x00,
  0x6d, 0x69, 0x6e, 0x5f, 0x72, 0x75, 0x6e, 0x74, 0x69, 0x6d, 0x65, 0x5f,
  0x76, 0x65, 0x72, 0x73, 0x69, 0x6f, 0x6e, 0x00, 0x19, 0x00, 0x00, 0x00,
  0xec, 0x14, 0x00, 0x00, 0xe4, 0x14, 0x00, 0x00, 0xcc, 0x14, 0x00, 0x00,
  0xb4, 0x14, 0x00, 0x00, 0x74, 0x14, 0x00, 0x00, 0x04, 0x14, 0x00, 0x00,
  0x74, 0x06, 0x00, 0x00, 0x24, 0x06, 0x00, 0x00, 0x94, 0x01, 0x00, 0x00,
  0x64, 0x01, 0x00, 0x00, 0x0c, 0x01, 0x00, 0x00, 0x04, 0x01, 0x00, 0x00,
  0xfc, 0x00, 0x00, 0x00, 0xf4, 0x00, 0x00, 0x00, 0xec, 0x00, 0x00, 0x00,
  0xe4, 0x00, 0x00, 0x00, 0xdc, 0x00, 0x00, 0x00, 0xd4, 0x00, 0x00, 0x00,
  0xcc, 0x00, 0x00, 0x00, 0xc4, 0x00, 0x00, 0x00, 0xbc, 0x00, 0x00, 0x00,
  0xb4, 0x00, 0x00, 0x00, 0x94, 0x00, 0x00, 0x00, 0x74, 0x00, 0x00, 0x00,
  0x04, 0x00, 0x00, 0x00, 0xae, 0xea, 0xff, 0xff, 0x04, 0x00, 0x00, 0x00,
  0x60, 0x00, 0x00, 0x00, 0x0c, 0x00, 0x00, 0x00, 0x08, 0x00, 0x0e, 0x00,
  0x08, 0x00, 0x04, 0x00, 0x08, 0x00, 0x00, 0x00, 0x10, 0x00, 0x00, 0x00,
  0x28, 0x00, 0x00, 0x00, 0x00, 0x00, 0x06, 0x00, 0x08, 0x00, 0x04, 0x00,
  0x06, 0x00, 0x00, 0x00, 0x04, 0x00, 0x00, 0x00, 0x01, 0x00, 0x00, 0x00,
  0xeb, 0x03, 0x00, 0x00, 0x0c, 0x00, 0x18, 0x00, 0x14, 0x00, 0x10, 0x00,
  0x0c, 0x00, 0x04, 0x00, 0x0c, 0x00, 0x00, 0x00, 0xb5, 0x44, 0x6a, 0xef,
  0x7f, 0x1b, 0xa7, 0xec, 0x02, 0x00, 0x00, 0x00, 0x02, 0x00, 0x00, 0x00,
  0x04, 0x00, 0x00, 0x00, 0x06, 0x00, 0x00, 0x00, 0x32, 0x2e, 0x31, 0x39,
  0x2e, 0x30, 0x00, 0x00, 0x1a, 0xeb, 0xff, 0xff, 0x04, 0x00, 0x00, 0x00,
  0x10, 0x00, 0x00, 0x00, 0x00, 0x00, 0x00, 0x00, 0x00, 0x00, 0x00, 0x00,
  0x00, 0x00, 0x00, 0x00, 0x00, 0x00, 0x00, 0x00, 0x36, 0xeb, 0xff, 0xff,
  0x04, 0x00, 0x00, 0x00, 0x10, 0x00, 0x00, 0x00, 0x31, 0x2e, 0x31, 0x34,
  0x2e, 0x30, 0x00, 0x00, 0x00, 0x00, 0x00, 0x00, 0x00, 0x00, 0x00, 0x00,
  0x74, 0xd9, 0xff, 0xff, 0x78, 0xd9, 0xff, 0xff, 0x7c, 0xd9, 0xff, 0xff,
  0x80, 0xd9, 0xff, 0xff, 0x84, 0xd9, 0xff, 0xff, 0x88, 0xd9, 0xff, 0xff,
  0x8c, 0xd9, 0xff, 0xff, 0x90, 0xd9, 0xff, 0xff, 0x94, 0xd9, 0xff, 0xff,
  0x98, 0xd9, 0xff, 0xff, 0x9c, 0xd9, 0xff, 0xff, 0x7e, 0xeb, 0xff, 0xff,
  0x04, 0x00, 0x00, 0x00, 0x48, 0x00, 0x00, 0x00, 0x25, 0xcb, 0x04, 0x85,
  0x12, 0x19, 0x81, 0xe3, 0xb4, 0xd9, 0xe0, 0xed, 0x6d, 0x73, 0x39, 0x7b,
  0x5e, 0x7f, 0x81, 0x40, 0x30, 0xc9, 0xdf, 0xed, 0x81, 0x26, 0x2b, 0x7b,
  0x35, 0x16, 0x54, 0xec, 0xf8, 0xea, 0xa7, 0x81, 0x52, 0xfb, 0x2d, 0x7f,
  0x23, 0x13, 0x35, 0x5a, 0xd6, 0x81, 0x93, 0x18, 0xa3, 0x30, 0x3f, 0x28,
  0x13, 0x61, 0x0f, 0x6e, 0x82, 0xe7, 0x2f, 0xc0, 0xf2, 0x7f, 0x95, 0x81,
  0x45, 0x00, 0xac, 0x28, 0x3e, 0x99, 0x04, 0xe9, 0xd2, 0xeb, 0xff, 0xff,
  0x04, 0x00, 0x00, 0x00, 0x20, 0x00, 0x00, 0x00, 0xbc, 0xf8, 0xff, 0xff,
  0x50, 0xc7, 0xff, 0xff, 0x01, 0xab, 0x00, 0x00, 0xc4, 0xff, 0xff, 0xff,
  0x32, 0xcc, 0xff, 0xff, 0x5a, 0x25, 0x00, 0x00, 0x82, 0x0c, 0x00, 0x00,
  0x1f, 0x38, 0x00, 0x00, 0xfe, 0xeb, 0xff, 0xff, 0x04, 0x00, 0x00, 0x00,
  0x80, 0x04, 0x00, 0x00, 0x00, 0x04, 0x1f, 0x2b, 0x14, 0x08, 0x33, 0x23,
  0xff, 0xf3, 0xed, 0x7f, 0x08, 0xe4, 0x72, 0xee, 0x0c, 0xc4, 0xef, 0x69,
  0xf4, 0xd9, 0x1e, 0x28, 0x04, 0x2c, 0xf4, 0xef, 0x30, 0x14, 0x2d, 0xfc,
  0xf2, 0xe0, 0xdd, 0x66, 0x15, 0xf8, 0x77, 0xf1, 0x0b, 0xba, 0x00, 0x35,
  0xd8, 0xf8, 0x09, 0x0f, 0x04, 0x43, 0xde, 0x59, 0x37, 0xe2, 0x43, 0x14,
  0x0d, 0xfb, 0xd4, 0x43, 0x29, 0x0c, 0x7a, 0xe6, 0xee, 0xe0, 0xec, 0x03,
  0xf6, 0x21, 0xef, 0x0f, 0xf5, 0x0b, 0x89, 0xeb, 0x17, 0xcd, 0xfc, 0xc4,
  0xfc, 0xe2, 0x8c, 0x15, 0xed, 0xbf, 0x2f, 0x81, 0xf7, 0xe0, 0x83, 0xef,
  0xe0, 0xb5, 0xc5, 0xe5, 0x0b, 0x49, 0xc1, 0xf3, 0x2f, 0x14, 0x00, 0xda,
  0xfd, 0x2b, 0xd2, 0x19, 0x2b, 0x1a, 0x3a, 0xfb, 0x09, 0x26, 0xd6, 0xe9,
  0x1b, 0x1c, 0xf5, 0x1b, 0xf9, 0x30, 0xd6, 0x5a, 0x3a, 0xe2, 0x17, 0xf1,
  0xfd, 0x24, 0xc3, 0x40, 0x23, 0xf5, 0x48, 0xfe, 0x0d, 0x2a, 0xc4, 0xd2,
  0x1d, 0xfe, 0xec, 0x0e, 0xf3, 0xe3, 0xd4, 0xf9, 0xdd, 0xcb, 0x5a, 0xd1,
  0x0c, 0x0b, 0x0a, 0x4b, 0x17, 0xf6, 0x59, 0x1b, 0x04, 0xf1, 0xff, 0x3f,
  0xf6, 0xf2, 0x70, 0x65, 0xfd, 0xef, 0xb9, 0x29, 0x10, 0xfd, 0x5f, 0xc8,
  0x11, 0xe6, 0x0c, 0x63, 0x0d, 0xf4, 0x43, 0xff, 0xfa, 0xe0, 0x09, 0x53,
  0xef, 0xe9, 0x7e, 0x60, 0xf1, 0x2d, 0x81, 0x54, 0x33, 0xcd, 0x5e, 0xb5,
  0x0a, 0x13, 0xf4, 0x41, 0x15, 0x09, 0x5b, 0x23, 0xf3, 0x08, 0x0a, 0x11,
  0xf9, 0x49, 0x59, 0x60, 0xec, 0xd2, 0x10, 0x06, 0xbb, 0x56, 0xe8, 0x38,
  0x1e, 0x02, 0x24, 0xb9, 0xeb, 0x30, 0xae, 0x62, 0xcc, 0x18, 0xe7, 0x57,
  0x10, 0x05, 0xfd, 0x23, 0xdc, 0x1a, 0x5f, 0x39, 0x06, 0x64, 0xe2, 0x7f,
  0x01, 0x01, 0x22, 0xf2, 0xd5, 0xe4, 0xbb, 0x65, 0x11, 0xf4, 0x2b, 0x53,
  0xea, 0xd6, 0x24, 0x04, 0xca, 0xe5, 0x65, 0x56, 0xd0, 0x3d, 0x50, 0x67,
  0x06, 0xdd, 0xf8, 0xae, 0xae, 0xfd, 0xfd, 0xf9, 0x29, 0xdb, 0x02, 0xf4,
  0xdc, 0x18, 0x31, 0x10, 0x05, 0x1d, 0x06, 0x54, 0x29, 0xf6, 0x0d, 0xed,
  0xf8, 0x13, 0xe1, 0x23, 0x1b, 0xe8, 0xfb, 0xa2, 0x0c, 0x22, 0xfa, 0xee,
  0x08, 0x18, 0xd9, 0xdf, 0xfe, 0xf4, 0x08, 0x59, 0x0c, 0xda, 0x10, 0xe8,
  0x06, 0xed, 0xfe, 0x5e, 0x0e, 0x81, 0x05, 0xa2, 0xfe, 0xf6, 0x17, 0x54,
  0xf8, 0xd1, 0xc9, 0xd1, 0x01, 0x05, 0xf9, 0x31, 0x0e, 0xee, 0x1f, 0x06,
  0xf6, 0xf0, 0x19, 0x08, 0xea, 0xe5, 0x04, 0xd0, 0x08, 0xfb, 0x0e, 0xd5,
  0xe8, 0x1f, 0xdb, 0xe7, 0x03, 0x07, 0xfd, 0xe3, 0xfa, 0x0b, 0xf9, 0xf6,
  0xf7, 0x00, 0x01, 0x03, 0x09, 0x0d, 0x78, 0xfc, 0x0a, 0xf5, 0x04, 0x1d,
  0xfa, 0x09, 0x0a, 0x0a, 0xfb, 0x09, 0x02, 0xe5, 0xfb, 0x14, 0xfa, 0xff,
  0xf7, 0x03, 0x03, 0x11, 0x04, 0x05, 0x7e, 0xf5, 0x03, 0xf5, 0x11, 0xfe,
  0xff, 0x04, 0x26, 0x02, 0x01, 0x04, 0x02, 0xf8, 0xf5, 0x0f, 0x0a, 0xf8,
  0x05, 0x07, 0xfd, 0x05, 0x07, 0xf8, 0x7f, 0xe7, 0x04, 0xf5, 0x08, 0x00,
  0xf7, 0x0f, 0x24, 0x18, 0x15, 0xf8, 0xff, 0xeb, 0xe7, 0x71, 0xf1, 0x4b,
  0xeb, 0x0a, 0x10, 0xd9, 0xe1, 0x5f, 0xbf, 0x2c, 0x0d, 0x12, 0xfb, 0xfb,
  0xfb, 0x31, 0xd0, 0x46, 0x06, 0x0f, 0xe2, 0xb6, 0x00, 0x7f, 0xe7, 0x29,
  0xf2, 0x13, 0xd9, 0xcf, 0x13, 0x32, 0xbb, 0x25, 0xff, 0x1c, 0xc9, 0xd5,
  0x18, 0x0d, 0xe5, 0x21, 0xf5, 0xef, 0xe2, 0x2a, 0x0c, 0x0d, 0xee, 0x1f,
  0xed, 0x06, 0xd5, 0x3e, 0x08, 0xe3, 0xc9, 0x16, 0x0f, 0x0f, 0xe1, 0x44,
  0xf6, 0xcc, 0xde, 0x0e, 0x1b, 0xcf, 0x20, 0x9e, 0xda, 0xfc, 0x1c, 0x2c,
  0x13, 0xea, 0x00, 0x3a, 0xfd, 0x29, 0x35, 0xe9, 0xfe, 0x32, 0xf9, 0x71,
  0x23, 0x38, 0xe7, 0x3a, 0xec, 0xce, 0x0f, 0xac, 0xde, 0x35, 0x18, 0x11,
  0xfd, 0xd9, 0xf1, 0x54, 0xe7, 0x2d, 0x31, 0xe1, 0x0b, 0x20, 0xe6, 0x69,
  0x02, 0x11, 0xd1, 0x33, 0x07, 0x19, 0x05, 0x29, 0x16, 0x2f, 0x26, 0x06,
  0x04, 0x12, 0xce, 0x7f, 0x1f, 0x40, 0x13, 0xcf, 0x00, 0x14, 0x0a, 0x6c,
  0xfa, 0x55, 0xde, 0x29, 0xe3, 0x27, 0x19, 0x0e, 0x38, 0x29, 0x13, 0x15,
  0xf8, 0x38, 0xf1, 0xec, 0x20, 0xca, 0xb3, 0xa4, 0xe6, 0x10, 0x15, 0x23,
  0x05, 0x25, 0xfa, 0xdc, 0x12, 0x32, 0x02, 0x59, 0x0b, 0xe4, 0x05, 0xf5,
  0xf4, 0x0d, 0xd8, 0xfa, 0x1b, 0x93, 0xc9, 0xd0, 0xfa, 0x1d, 0xed, 0x2d,
  0x19, 0x08, 0xe9, 0xdb, 0xe9, 0x23, 0x35, 0x1a, 0xef, 0x23, 0x2c, 0x02,
  0xf2, 0xfb, 0xe3, 0xfa, 0x25, 0xa2, 0xc1, 0x81, 0xf1, 0x00, 0xfc, 0x05,
  0x0e, 0xf2, 0xec, 0xc7, 0xd8, 0xbf, 0x17, 0xb2, 0xc7, 0x3f, 0xf8, 0x50,
  0x0e, 0xe6, 0x47, 0xb6, 0xe9, 0x02, 0x10, 0x55, 0x23, 0xf7, 0x23, 0x67,
  0xfd, 0x06, 0x62, 0x13, 0xd3, 0xcb, 0x4a, 0xb7, 0x0e, 0xf5, 0x17, 0x16,
  0x37, 0x07, 0x07, 0xda, 0x12, 0xf9, 0x40, 0x1b, 0x1b, 0xe6, 0x3a, 0x34,
  0xe2, 0xe8, 0x7f, 0xd9, 0xd1, 0xf7, 0x10, 0xc3, 0xe8, 0x44, 0x1f, 0x0d,
  0x17, 0x13, 0x14, 0xbb, 0xc1, 0x21, 0x36, 0x57, 0x2d, 0xe3, 0xfe, 0x2a,
  0xde, 0x15, 0x44, 0x06, 0xf5, 0xe9, 0x0d, 0xd4, 0xda, 0x49, 0xc0, 0x2f,
  0x10, 0x1f, 0xfc, 0xc6, 0x05, 0x33, 0xbe, 0x1b, 0x13, 0x1f, 0xdd, 0x2b,
  0xfc, 0x05, 0x2c, 0x00, 0x03, 0x00, 0xe9, 0xa6, 0xef, 0x17, 0xfd, 0x1f,
  0x09, 0x1c, 0xf8, 0x98, 0xfe, 0x26, 0xdd, 0x14, 0x14, 0x2c, 0xc7, 0xfc,
  0x14, 0xf9, 0x46, 0xe6, 0xed, 0xfa, 0xeb, 0xd1, 0xe9, 0x28, 0xf5, 0x1e,
  0xf9, 0x05, 0xeb, 0xd0, 0x15, 0x30, 0xae, 0x19, 0x15, 0x2c, 0xc0, 0x14,
  0x26, 0x06, 0x23, 0x81, 0x09, 0x23, 0xdc, 0xc8, 0x14, 0x2f, 0xb9, 0xf2,
  0xef, 0x18, 0xd3, 0x45, 0x21, 0x34, 0x37, 0x9e, 0xff, 0x14, 0xd7, 0x41,
  0x23, 0xfd, 0xa3, 0xd3, 0x06, 0x20, 0xdc, 0x75, 0x1e, 0xcf, 0xcc, 0xd8,
  0x01, 0xfe, 0xed, 0x7f, 0x09, 0x02, 0x54, 0xf0, 0x0d, 0x14, 0xca, 0x45,
  0x07, 0xc8, 0x8f, 0xcd, 0xfd, 0x14, 0xe1, 0x54, 0x17, 0xfc, 0x1b, 0xc8,
  0x08, 0xfc, 0x06, 0x6f, 0xf8, 0x1e, 0x50, 0xe2, 0xfa, 0xf5, 0x04, 0x3a,
  0x13, 0xea, 0xb2, 0xf2, 0xef, 0x19, 0xf0, 0x81, 0xf0, 0x17, 0xed, 0xe8,
  0xf2, 0xea, 0x01, 0xef, 0x0b, 0xb3, 0xfd, 0x98, 0x1a, 0xf0, 0xe5, 0xf3,
  0x04, 0xcd, 0xf7, 0xef, 0x05, 0x07, 0xe4, 0xe6, 0x20, 0x29, 0xc0, 0xf8,
  0x0d, 0x26, 0xe1, 0x09, 0x02, 0x1e, 0x0f, 0xee, 0x09, 0x1c, 0x06, 0xef,
  0x1a, 0x22, 0x08, 0xf8, 0xec, 0x1a, 0x28, 0xe6, 0xf0, 0xf6, 0x1c, 0xfc,
  0xfc, 0x07, 0xfc, 0xe0, 0x0e, 0xb7, 0xec, 0x86, 0x19, 0x1e, 0x0e, 0xc5,
  0x1f, 0x21, 0x0d, 0xf6, 0x01, 0x10, 0xe4, 0x07, 0x07, 0x00, 0x23, 0xda,
  0x0d, 0x0e, 0x05, 0x11, 0x07, 0x4e, 0x1c, 0x0c, 0xf2, 0xfd, 0x0b, 0x41,
  0x1a, 0x29, 0x75, 0xf4, 0xf3, 0xfe, 0x08, 0x06, 0xf8, 0xf7, 0x23, 0xf3,
  0xfa, 0xf1, 0xf3, 0x57, 0x0f, 0x14, 0x2f, 0x00, 0xfe, 0x09, 0xfd, 0x75,
  0x17, 0xe6, 0x73, 0x10, 0xf7, 0xe6, 0xfe, 0x0c, 0xe7, 0xf9, 0x41, 0xe2,
  0x0f, 0xf3, 0x06, 0x29, 0xf8, 0x16, 0x3e, 0xfc, 0xf8, 0xe7, 0x21, 0x39,
  0xf8, 0x1a, 0x7f, 0x08, 0x0d, 0xde, 0x01, 0xe6, 0xec, 0x0e, 0x28, 0x20,
  0xef, 0xc8, 0x05, 0x0d, 0xb0, 0x2f, 0x44, 0x18, 0x12, 0x0c, 0x37, 0x81,
  0xcd, 0x13, 0x45, 0x18, 0x02, 0xca, 0x05, 0xd2, 0xcb, 0xf9, 0x19, 0x1c,
  0xe3, 0xf1, 0x14, 0x05, 0xdd, 0x30, 0x34, 0xf7, 0x06, 0xfd, 0x27, 0xd3,
  0x03, 0x11, 0x27, 0x04, 0xf7, 0xcf, 0x03, 0xdf, 0xc8, 0x17, 0x14, 0x10,
  0x07, 0xe1, 0x0b, 0xf9, 0xf9, 0x01, 0x4b, 0x1f, 0x1c, 0xf8, 0x33, 0xd3,
  0xf1, 0x0f, 0x09, 0x18, 0xfd, 0x0d, 0xd2, 0x5e, 0x14, 0x09, 0x23, 0xe3,
  0xf6, 0x08, 0xc7, 0x55, 0x0b, 0x18, 0xf4, 0xd7, 0x05, 0x1e, 0xdb, 0x52,
  0x0e, 0x17, 0x32, 0x08, 0xff, 0xe1, 0xe5, 0x2e, 0xf8, 0xec, 0x21, 0xe0,
  0x06, 0xd3, 0xec, 0x35, 0xfe, 0x0f, 0x0f, 0xf3, 0xfd, 0xd3, 0x21, 0x38,
  0xf5, 0x17, 0x34, 0x30, 0xff, 0x2b, 0xee, 0x08, 0x11, 0x4a, 0x35, 0x04,
  0x03, 0x23, 0xe8, 0xff, 0x07, 0x6d, 0xe6, 0x04, 0xfb, 0x26, 0x07, 0x0f,
  0xfb, 0x7f, 0x31, 0x23, 0x8a, 0xf0, 0xff, 0xff, 0x04, 0x00, 0x00, 0x00,
  0x40, 0x00, 0x00, 0x00, 0xa0, 0xf8, 0xff, 0xff, 0x23, 0xf7, 0xff, 0xff,
  0x0b, 0xfa, 0xff, 0xff, 0x54, 0x0b, 0x00, 0x00, 0xd0, 0x04, 0x00, 0x00,
  0xea, 0xfe, 0xff, 0xff, 0xb5, 0xf9, 0xff, 0xff, 0x7d, 0xf3, 0xff, 0xff,
  0xf7, 0xff, 0xff, 0xff, 0xe4, 0x0e, 0x00, 0x00, 0xf5, 0xf8, 0xff, 0xff,
  0xd0, 0xfc, 0xff, 0xff, 0x61, 0xfe, 0xff, 0xff, 0x18, 0xff, 0xff, 0xff,
  0x07, 0x0d, 0x00, 0x00, 0x96, 0xef, 0xff, 0xff, 0xd6, 0xf0, 0xff, 0xff,
  0x04, 0x00, 0x00, 0x00, 0x80, 0x0d, 0x00, 0x00, 0x18, 0xd3, 0xe9, 0x0f,
  0x07, 0x05, 0xe7, 0xf2, 0xe8, 0x04, 0xd6, 0xf4, 0xd5, 0x05, 0x34, 0x07,
  0x1e, 0xce, 0xea, 0x91, 0x14, 0xfe, 0xbc, 0xf9, 0x20, 0xca, 0xfc, 0x1b,
  0xf6, 0x27, 0x17, 0x15, 0xf1, 0xd7, 0x2f, 0xb8, 0xdf, 0x10, 0xd9, 0x0e,
  0x08, 0xf2, 0xf7, 0xe9, 0x0d, 0x45, 0x5b, 0x19, 0x2b, 0x2f, 0x28, 0xf4,
  0x06, 0x2e, 0x38, 0x1d, 0x14, 0xbf, 0x27, 0x16, 0xee, 0xfa, 0x81, 0xfc,
  0x13, 0x0c, 0x08, 0xe1, 0x1a, 0x0d, 0xef, 0x27, 0xf8, 0xd9, 0xf0, 0x01,
  0x07, 0x1a, 0xf7, 0x00, 0x34, 0xe2, 0x40, 0x0b, 0xe8, 0x28, 0xfa, 0x22,
  0xd9, 0xf1, 0xfd, 0x0a, 0xe1, 0x0f, 0x4e, 0x26, 0x01, 0xdd, 0xe5, 0x06,
  0x03, 0x11, 0xee, 0xeb, 0x14, 0xb0, 0xe3, 0x16, 0x0c, 0xf4, 0x04, 0xf5,
  0x02, 0x15, 0xf0, 0x8d, 0xfe, 0x2c, 0x03, 0x13, 0x0d, 0xa0, 0xf4, 0x0b,
  0xfb, 0xed, 0x6a, 0xd9, 0x2a, 0xfc, 0x09, 0x09, 0x00, 0x06, 0xe2, 0x17,
  0x04, 0xec, 0x03, 0x08, 0xd7, 0x28, 0x3c, 0xf0, 0x28, 0xd2, 0xe6, 0x21,
  0xbe, 0xe4, 0x10, 0x3d, 0xea, 0x60, 0x24, 0xc9, 0x28, 0xa6, 0xb0, 0xca,
  0xfb, 0xd5, 0x29, 0x21, 0xbf, 0x01, 0x0d, 0x06, 0xdd, 0x52, 0x41, 0xe4,
  0x0d, 0xb0, 0xfc, 0x15, 0x06, 0x2c, 0xd8, 0x45, 0x94, 0xf2, 0x3a, 0xdc,
  0xb3, 0x16, 0x27, 0x19, 0x22, 0xe5, 0xea, 0x07, 0x09, 0xe7, 0x1a, 0xe4,
  0x2a, 0xef, 0x27, 0x1c, 0xbb, 0x1a, 0x3e, 0xea, 0x30, 0x43, 0xe0, 0xdd,
  0x34, 0xf4, 0x08, 0x5d, 0x05, 0xc9, 0x2b, 0xc9, 0xf0, 0x48, 0x0b, 0x12,
  0x1d, 0xe6, 0xd5, 0x38, 0xf6, 0x05, 0x0a, 0x16, 0x06, 0x03, 0x4e, 0x17,
  0x03, 0x01, 0x1e, 0x58, 0xe7, 0x2d, 0xa5, 0xff, 0x3f, 0x32, 0x31, 0x3c,
  0xcf, 0xea, 0xfe, 0x18, 0x1e, 0x13, 0x07, 0x2b, 0xfb, 0x17, 0x0d, 0x2a,
  0x48, 0x50, 0x65, 0x4a, 0x0f, 0x09, 0x4a, 0x44, 0x39, 0x1f, 0x20, 0x0b,
  0x1d, 0x40, 0xd7, 0x40, 0x5f, 0x7f, 0x2a, 0x3b, 0xfb, 0xd4, 0x16, 0x1d,
  0x10, 0x34, 0xa9, 0x4a, 0xdc, 0x3a, 0xea, 0x1e, 0x41, 0xd8, 0x06, 0x00,
  0x0c, 0xd0, 0xd2, 0xc0, 0xd1, 0x27, 0xdb, 0xb8, 0x01, 0xb4, 0xf7, 0xb9,
  0xfa, 0xb4, 0x01, 0x16, 0xb9, 0xfb, 0xc7, 0x04, 0xdd, 0x01, 0xf1, 0xa0,
  0x1d, 0xca, 0xd8, 0xc7, 0x52, 0x2f, 0x02, 0x03, 0xb9, 0x63, 0x27, 0xf0,
  0x06, 0x25, 0x50, 0x0c, 0x29, 0x0b, 0xfd, 0x07, 0x15, 0xbe, 0xc4, 0x3d,
  0xd9, 0xb2, 0xd0, 0xf8, 0xf3, 0x34, 0x89, 0xf4, 0xf1, 0xe6, 0xe3, 0x87,
  0xae, 0xb4, 0x1c, 0xef, 0x1e, 0xeb, 0xe7, 0xe8, 0xfb, 0x3b, 0x21, 0xf0,
  0xd9, 0x0c, 0xdb, 0xbb, 0x48, 0x00, 0x40, 0x0f, 0x26, 0x38, 0x47, 0x1f,
  0x0d, 0x18, 0x43, 0xff, 0x17, 0x20, 0xc6, 0xe5, 0x10, 0x29, 0xd5, 0x4f,
  0xf7, 0xc0, 0xda, 0x18, 0x15, 0x20, 0x8d, 0xf9, 0xf5, 0x03, 0x01, 0x3d,
  0xe2, 0xf8, 0x14, 0x24, 0x16, 0xf2, 0x40, 0xfb, 0xe8, 0x15, 0xeb, 0x04,
  0xbe, 0x20, 0x00, 0x51, 0x38, 0x5e, 0x33, 0x43, 0x1e, 0x53, 0x24, 0x1c,
  0x05, 0x22, 0x2b, 0x51, 0xed, 0x4a, 0xc8, 0x7f, 0xf4, 0xba, 0x2b, 0xc7,
  0xcf, 0xf9, 0xda, 0xf1, 0xd6, 0xe2, 0xee, 0xdd, 0xe7, 0xee, 0xe4, 0xe7,
  0xe1, 0xd0, 0xcf, 0x27, 0xce, 0x07, 0x10, 0xf6, 0x02, 0x2b, 0x11, 0xe2,
  0xf6, 0xf8, 0x38, 0xde, 0xd0, 0xff, 0xd7, 0x2d, 0x02, 0xfc, 0xf1, 0xf6,
  0xfc, 0x3e, 0x07, 0xfd, 0xf3, 0xee, 0x3a, 0xec, 0xf8, 0x1b, 0x21, 0xc5,
  0xc9, 0x06, 0x1a, 0xf8, 0x07, 0xb5, 0x20, 0xed, 0x09, 0xf7, 0xc4, 0x20,
  0x1e, 0x35, 0x0d, 0x1c, 0xc6, 0x09, 0x19, 0x13, 0x12, 0x02, 0x21, 0xf7,
  0x17, 0xf4, 0xfa, 0x12, 0x07, 0x30, 0x02, 0x00, 0xe1, 0x06, 0x13, 0xee,
  0x0b, 0xfd, 0x25, 0xf6, 0x13, 0xe7, 0x03, 0x14, 0xfd, 0x04, 0x07, 0x96,
  0xef, 0xf4, 0xef, 0xe1, 0xf3, 0xcc, 0x09, 0xf3, 0x09, 0x09, 0x02, 0xd7,
  0xec, 0x18, 0xe5, 0x0b, 0xe8, 0xf7, 0x01, 0x0c, 0x10, 0xf9, 0x21, 0x09,
  0x1c, 0x07, 0x7f, 0xc6, 0x14, 0x1f, 0x02, 0xde, 0xfc, 0x02, 0x03, 0xf2,
  0x0b, 0xf8, 0x10, 0x15, 0x0b, 0x05, 0xd6, 0xda, 0xe0, 0xd2, 0xe7, 0xfc,
  0xd1, 0xf1, 0xd3, 0xe7, 0xbf, 0xfb, 0xbd, 0xa3, 0xf1, 0xd9, 0xdc, 0x8e,
  0x10, 0xc5, 0x2c, 0xf5, 0xdf, 0x01, 0x07, 0x09, 0xa6, 0xf9, 0x1a, 0xc9,
  0xe2, 0x15, 0x0b, 0xe5, 0x2d, 0x46, 0x40, 0x0d, 0xf2, 0x44, 0x14, 0x01,
  0xd5, 0x2e, 0x7f, 0x1b, 0x06, 0x20, 0xcb, 0x3c, 0x04, 0xab, 0xbc, 0x11,
  0xbd, 0xfb, 0xdf, 0xf9, 0xc0, 0x18, 0xd8, 0xcd, 0xd8, 0xbb, 0xf7, 0xc4,
  0x0c, 0xb2, 0x17, 0x05, 0xe2, 0xff, 0xff, 0x2b, 0xe3, 0xfb, 0x48, 0xd0,
  0xf9, 0x09, 0xd0, 0xf4, 0x51, 0x15, 0x19, 0x25, 0xfe, 0x4b, 0x38, 0x0c,
  0x07, 0x15, 0x59, 0x14, 0x06, 0x20, 0xf7, 0x10, 0xf0, 0xf4, 0xfd, 0x13,
  0xfd, 0xf7, 0x0c, 0x07, 0xfe, 0x24, 0xe1, 0x0b, 0xe3, 0x0f, 0xe0, 0xdf,
  0xf6, 0xd0, 0x23, 0x05, 0x18, 0x22, 0x14, 0x09, 0xdf, 0x0d, 0x2e, 0xea,
  0xd2, 0x32, 0x0b, 0x31, 0x51, 0x3b, 0x54, 0x2d, 0x19, 0x5e, 0x2a, 0x33,
  0x13, 0xf2, 0x44, 0x3e, 0x06, 0x4b, 0xce, 0x66, 0xf3, 0x35, 0x01, 0xfa,
  0xe9, 0x1d, 0x1d, 0xfb, 0x25, 0xd6, 0x0a, 0x22, 0x0f, 0x15, 0x48, 0x0c,
  0x35, 0x22, 0x0c, 0xa7, 0x0e, 0x20, 0x18, 0xeb, 0x11, 0xa7, 0x0d, 0x12,
  0xfb, 0x01, 0x3a, 0x0d, 0x18, 0x02, 0x15, 0xf5, 0xe3, 0x17, 0x13, 0x18,
  0x16, 0xca, 0x35, 0xeb, 0xfd, 0x20, 0x28, 0x23, 0xda, 0xc8, 0xe0, 0xd9,
  0xea, 0x11, 0xd1, 0xed, 0x1c, 0xb7, 0x0e, 0x12, 0x0c, 0x0e, 0xdc, 0xf9,
  0x04, 0xe3, 0xdc, 0x81, 0x15, 0x0a, 0xd4, 0xef, 0x11, 0xb0, 0xe9, 0x15,
  0x11, 0x10, 0x0d, 0xfc, 0xee, 0xee, 0xff, 0xcb, 0x06, 0x1d, 0x05, 0x21,
  0x19, 0xcc, 0x1a, 0xea, 0xfb, 0x22, 0x4c, 0x07, 0xf1, 0xf7, 0xe5, 0x02,
  0x01, 0x02, 0x03, 0xff, 0xff, 0xd3, 0x0e, 0xfe, 0x0d, 0xe7, 0xce, 0xfe,
  0xf4, 0x0c, 0x08, 0xef, 0x11, 0x15, 0xec, 0xfd, 0x0c, 0xb0, 0x10, 0x05,
  0x0e, 0x1b, 0x57, 0x14, 0x0a, 0xc8, 0x38, 0x13, 0xf9, 0x3c, 0x07, 0x37,
  0xfc, 0xfc, 0x02, 0x07, 0xe5, 0x39, 0x5d, 0x00, 0x2a, 0x1c, 0xea, 0x1a,
  0x2e, 0xb1, 0x26, 0x19, 0x15, 0x02, 0x28, 0xeb, 0x0e, 0xd5, 0x06, 0x3e,
  0x11, 0x21, 0x26, 0xe9, 0x0d, 0xd7, 0x1d, 0x11, 0x1f, 0xe3, 0xf8, 0x18,
  0xdc, 0xdc, 0xda, 0x0f, 0xea, 0xcd, 0xc9, 0x1c, 0xfd, 0xcd, 0x25, 0xe3,
  0xe5, 0x18, 0xf9, 0xf9, 0xce, 0xc5, 0xd1, 0x01, 0x0d, 0x17, 0xfd, 0xf0,
  0x24, 0xeb, 0x3d, 0x0a, 0x17, 0x02, 0xcc, 0x2e, 0x21, 0x01, 0x11, 0x33,
  0x14, 0x29, 0x0d, 0xfb, 0x43, 0xa8, 0x00, 0xd0, 0xfd, 0x05, 0xd6, 0x03,
  0x21, 0x20, 0xc6, 0x22, 0xaf, 0xdf, 0xea, 0xec, 0xfa, 0xb7, 0x0e, 0xdc,
  0x2c, 0x0f, 0xc0, 0xeb, 0xdb, 0x0d, 0xf0, 0x28, 0xea, 0xf6, 0xe1, 0x3f,
  0x0d, 0xbc, 0x12, 0x30, 0xfb, 0x33, 0x07, 0x1b, 0xf6, 0x13, 0x31, 0xe9,
  0xd2, 0x34, 0xba, 0x46, 0xe7, 0xde, 0xe1, 0xe5, 0x29, 0xfd, 0xcd, 0xe1,
  0x24, 0xf6, 0xea, 0xff, 0x9c, 0x19, 0xaf, 0xdd, 0xfe, 0x81, 0xfe, 0xfd,
  0xe5, 0xed, 0x20, 0x1a, 0x31, 0xd8, 0xb3, 0xbe, 0x0e, 0xdb, 0xf2, 0x2b,
  0xd7, 0xdf, 0xb5, 0x15, 0x08, 0x17, 0xe5, 0xda, 0xf5, 0xff, 0xfb, 0xb7,
  0x24, 0xce, 0x28, 0x22, 0x17, 0x15, 0xf2, 0x18, 0xf2, 0xf3, 0x1c, 0x03,
  0x26, 0x21, 0x05, 0xf6, 0x4f, 0x29, 0x3f, 0x1d, 0x36, 0x32, 0x53, 0xf8,
  0x14, 0x29, 0x40, 0x35, 0x34, 0x12, 0xfe, 0x50, 0xbc, 0xac, 0xc5, 0xfd,
  0xe0, 0x00, 0xc8, 0xec, 0xe7, 0xf9, 0xab, 0xca, 0xea, 0xe6, 0x06, 0xca,
  0x1a, 0xc8, 0x12, 0xf0, 0x1f, 0xfd, 0x22, 0xf8, 0xe3, 0x26, 0x15, 0x17,
  0x00, 0x20, 0xe6, 0x0d, 0x3e, 0x38, 0x3d, 0x1b, 0x24, 0x29, 0x44, 0x2e,
  0xf1, 0x04, 0x46, 0x31, 0x18, 0x2a, 0xd8, 0x2b, 0xf2, 0x88, 0xc4, 0x13,
  0xcf, 0x0a, 0x8c, 0xc8, 0xa9, 0x1f, 0xa2, 0xcc, 0xc8, 0xe0, 0xf5, 0x81,
  0x30, 0xad, 0x32, 0x1a, 0xd9, 0x34, 0xd1, 0xde, 0xf2, 0x01, 0xf3, 0xe8,
  0xe7, 0x27, 0xd9, 0xf2, 0x37, 0x1f, 0x1c, 0x1a, 0xee, 0x45, 0x25, 0x11,
  0xcf, 0x03, 0x06, 0xed, 0xe2, 0xf8, 0xda, 0x0c, 0x06, 0x08, 0xfa, 0xff,
  0xeb, 0x14, 0x09, 0x09, 0xf9, 0xf0, 0x0d, 0xfd, 0x09, 0x05, 0xd5, 0x08,
  0x15, 0xff, 0x0d, 0xe8, 0x01, 0x09, 0xf3, 0xfe, 0xfe, 0xe7, 0xf8, 0xff,
  0x04, 0xfe, 0x81, 0x13, 0xff, 0xf0, 0x10, 0xf4, 0xf1, 0x11, 0xef, 0x14,
  0x02, 0xe1, 0x04, 0x03, 0x08, 0x0f, 0x13, 0x11, 0x00, 0xfb, 0x06, 0xe4,
  0xff, 0x12, 0xfa, 0x0c, 0xf8, 0xe8, 0x07, 0x02, 0x05, 0x00, 0xf9, 0xfb,
  0xf8, 0x05, 0x09, 0xd5, 0x0d, 0x00, 0x07, 0xff, 0xfb, 0xd7, 0xfd, 0x05,
  0xf8, 0xfd, 0x91, 0xfd, 0x06, 0x05, 0x05, 0xe7, 0xfb, 0x12, 0x07, 0x0c,
  0x05, 0xd3, 0x01, 0x06, 0x00, 0x0f, 0x15, 0xfa, 0x0c, 0xe9, 0xf5, 0xfd,
  0xf4, 0x10, 0xf4, 0x12, 0xf7, 0xe1, 0xf8, 0x07, 0xfc, 0x00, 0xdd, 0xf5,
  0x06, 0xf5, 0x05, 0xe4, 0x08, 0x00, 0xf8, 0x0d, 0x05, 0xdb, 0x00, 0x08,
  0xf3, 0x0a, 0xd9, 0x05, 0x0b, 0xe2, 0x19, 0xf9, 0x04, 0x0f, 0xfd, 0x04,
  0x08, 0xe4, 0x04, 0x02, 0x02, 0x13, 0x1d, 0x09, 0x22, 0xed, 0x19, 0x09,
  0xff, 0x18, 0xd6, 0x0b, 0x01, 0x10, 0x04, 0xee, 0xf9, 0xfc, 0x81, 0xe5,
  0x08, 0xec, 0x06, 0xf5, 0xe9, 0xfc, 0xf1, 0x0d, 0xf0, 0x07, 0x18, 0xfe,
  0x06, 0x04, 0xe2, 0xfa, 0x1c, 0x1d, 0x0d, 0xfb, 0x0f, 0x1b, 0x14, 0x11,
  0x0f, 0x15, 0x1f, 0x0a, 0x0d, 0x0c, 0xe7, 0x18, 0x0f, 0xee, 0x08, 0x07,
  0x02, 0x08, 0xf5, 0xf7, 0xfa, 0x07, 0xe0, 0xef, 0xde, 0x07, 0x9c, 0xf4,
  0x05, 0xef, 0x06, 0xed, 0xf6, 0xf2, 0x09, 0xf8, 0xe7, 0xf1, 0x0b, 0xf8,
  0xe9, 0x01, 0xdd, 0x01, 0x1d, 0x14, 0x07, 0x03, 0x0e, 0x1d, 0x07, 0x05,
  0x0c, 0x08, 0x14, 0x19, 0x04, 0x14, 0xd7, 0x15, 0x19, 0xe8, 0x0b, 0x17,
  0xee, 0x22, 0xd1, 0x04, 0xdc, 0x1d, 0xea, 0xf2, 0xe3, 0x02, 0x8d, 0xdd,
  0x0c, 0xda, 0x0e, 0x05, 0xd2, 0xf3, 0xf9, 0x05, 0xd5, 0xf9, 0x00, 0xeb,
  0xe2, 0xfd, 0xef, 0x04, 0x1c, 0x0e, 0x14, 0xfd, 0xfc, 0x26, 0x15, 0x0a,
  0xf6, 0x10, 0x1e, 0xfe, 0xf7, 0x0b, 0xed, 0xff, 0x19, 0x82, 0xef, 0x07,
  0xe9, 0x0a, 0x08, 0x03, 0xd8, 0xef, 0xe3, 0xe4, 0xdb, 0x05, 0xf1, 0xfc,
  0xda, 0xe8, 0x39, 0xfc, 0xba, 0xf8, 0xf8, 0x26, 0xdd, 0x1a, 0x05, 0xa9,
  0xf1, 0x21, 0x20, 0x00, 0xfe, 0xfc, 0x04, 0x14, 0xf1, 0x2b, 0xeb, 0x17,
  0xdb, 0x16, 0x0b, 0xe8, 0xef, 0x06, 0xfc, 0x0e, 0x21, 0xc5, 0x0d, 0xfb,
  0xe4, 0xfc, 0x31, 0x09, 0x0c, 0xe7, 0xe9, 0xf2, 0xe1, 0x0a, 0xfd, 0xd1,
  0xe7, 0xb6, 0x1f, 0x14, 0xd8, 0x10, 0xff, 0x11, 0xe9, 0x0b, 0x1b, 0xd7,
  0xf6, 0x06, 0x08, 0x1e, 0x0d, 0xc7, 0x00, 0xf8, 0x00, 0x1d, 0xe8, 0x20,
  0xdf, 0x0c, 0x01, 0xe3, 0x08, 0x1b, 0xf7, 0x2e, 0x17, 0x06, 0x07, 0xe6,
  0xfa, 0x0b, 0xf2, 0xf8, 0x06, 0xe9, 0xfb, 0x1e, 0x05, 0x06, 0xf4, 0xe6,
  0xe5, 0x81, 0x0f, 0x1b, 0xc8, 0x15, 0xfe, 0x1c, 0xfd, 0xfe, 0x2e, 0xd4,
  0x08, 0x0e, 0x06, 0x0a, 0x16, 0xc5, 0xef, 0x09, 0x12, 0x12, 0xc7, 0x1a,
  0x17, 0x12, 0x11, 0x12, 0x1c, 0x11, 0x01, 0x13, 0x24, 0xee, 0x4c, 0x0a,
  0x3e, 0x14, 0xe7, 0x00, 0x20, 0x02, 0xd3, 0xef, 0xad, 0x24, 0x1a, 0x2c,
  0x18, 0x81, 0x2c, 0x0c, 0xd2, 0x02, 0x1a, 0xf5, 0xa4, 0x21, 0x98, 0xd0,
  0x93, 0x25, 0x14, 0xfe, 0xfe, 0xe0, 0xfa, 0x2a, 0x93, 0x04, 0x01, 0xf6,
  0xac, 0x2a, 0xc7, 0x8f, 0xd5, 0x1d, 0x13, 0xad, 0x2a, 0x07, 0x44, 0xf4,
  0x1f, 0x14, 0x40, 0x00, 0x1c, 0xf6, 0x0f, 0x0a, 0x21, 0x2a, 0x10, 0x49,
  0x23, 0x37, 0x37, 0x0e, 0xf5, 0x19, 0x3f, 0x0f, 0x01, 0x0c, 0x03, 0x09,
  0x17, 0x01, 0xf9, 0x1e, 0x23, 0x42, 0x24, 0x1f, 0xc2, 0x05, 0x39, 0xfe,
  0x0c, 0x1d, 0x0e, 0x0f, 0x0a, 0x08, 0x12, 0xfd, 0x07, 0xeb, 0x32, 0xfd,
  0x14, 0xe6, 0xe2, 0x0d, 0x03, 0xfa, 0xd1, 0xf6, 0xcb, 0x29, 0x1b, 0xf7,
  0x0c, 0xfb, 0x24, 0x00, 0xf5, 0xf5, 0xde, 0xfe, 0x10, 0x0f, 0x03, 0xf0,
  0x02, 0x34, 0x08, 0xee, 0x0a, 0x0c, 0xed, 0x28, 0xd5, 0x0b, 0xf5, 0x0b,
  0x06, 0x22, 0xf3, 0x0d, 0x15, 0xf8, 0x13, 0xb7, 0xf0, 0x83, 0xd4, 0x7f,
  0xef, 0xd6, 0x31, 0x46, 0xe6, 0x25, 0xf2, 0x99, 0x0a, 0xd1, 0xf2, 0xfe,
  0x3b, 0x81, 0x51, 0xfd, 0x2c, 0xee, 0x4b, 0x28, 0x02, 0x70, 0x35, 0xbf,
  0xe9, 0xa7, 0xd0, 0x1c, 0xfb, 0x22, 0x17, 0x69, 0xe2, 0x24, 0x53, 0x64,
  0xef, 0x33, 0x17, 0x36, 0xf1, 0xb1, 0xcc, 0x4d, 0xb5, 0x9e, 0xb6, 0x0e,
  0x31, 0x9a, 0x4c, 0xe2, 0xe2, 0x51, 0xc3, 0xe0, 0xfb, 0x31, 0x3d, 0x11,
  0x3c, 0xff, 0x6d, 0x38, 0x34, 0x1a, 0x0b, 0x2b, 0x1a, 0x4c, 0xd7, 0x38,
  0xa3, 0xfa, 0x19, 0x0b, 0xea, 0x49, 0xd2, 0x34, 0x51, 0xcf, 0x52, 0x43,
  0xc2, 0x5f, 0x8f, 0x58, 0xa0, 0x34, 0x02, 0x63, 0x69, 0xee, 0xdc, 0x6a,
  0xb4, 0xbe, 0x0e, 0xf8, 0xbf, 0x4b, 0x15, 0xa8, 0xb0, 0x9d, 0x1b, 0x17,
  0x5f, 0x53, 0x6a, 0x68, 0x1c, 0xff, 0xe7, 0x35, 0x08, 0x31, 0x1c, 0x17,
  0x08, 0x37, 0x1e, 0xe6, 0x34, 0x52, 0x01, 0x45, 0x27, 0xca, 0xf7, 0x0f,
  0xa9, 0x59, 0xee, 0x03, 0x92, 0xca, 0xc3, 0x1d, 0xc6, 0xa7, 0xcd, 0x86,
  0xe0, 0xb9, 0x8c, 0xb4, 0xca, 0x8b, 0x9f, 0xc4, 0xd6, 0xb5, 0xd3, 0xb8,
  0xc1, 0xdc, 0xc4, 0x10, 0xce, 0xf5, 0x10, 0xf6, 0x0a, 0x10, 0x16, 0xe8,
  0x16, 0xfb, 0x57, 0xbe, 0x08, 0xf5, 0xda, 0x2b, 0x1b, 0x14, 0xe1, 0xf9,
  0xfb, 0x41, 0xe3, 0x01, 0xf8, 0xe2, 0x7f, 0xfe, 0x0e, 0x14, 0x19, 0xf1,
  0xde, 0xfa, 0x1d, 0xf1, 0x08, 0xe0, 0x17, 0x07, 0x10, 0xf5, 0xc4, 0x11,
  0xe0, 0x1c, 0xe2, 0x1c, 0xcf, 0xf7, 0x1e, 0x0d, 0x01, 0x03, 0x15, 0x05,
  0x17, 0xf9, 0x3c, 0x07, 0x03, 0x2e, 0xf2, 0x0b, 0x00, 0xfd, 0x26, 0x14,
  0x0b, 0x02, 0x1b, 0x0d, 0x1f, 0xef, 0x0c, 0x17, 0xe8, 0xdf, 0xf8, 0xe1,
  0xf3, 0xf5, 0xcb, 0xe9, 0xf5, 0xf7, 0xe9, 0xf3, 0xea, 0x08, 0xd1, 0xd0,
  0xac, 0x00, 0xb8, 0x18, 0xde, 0xe7, 0x14, 0x16, 0x05, 0x13, 0x16, 0xf0,
  0x11, 0x04, 0x38, 0xe2, 0x06, 0xfd, 0xde, 0x14, 0x1c, 0x0d, 0x06, 0xff,
  0x17, 0xf7, 0x15, 0x06, 0x1a, 0x09, 0xf7, 0xe9, 0x1f, 0x02, 0xf9, 0xd7,
  0xff, 0x0e, 0xcd, 0xef, 0xee, 0xce, 0xed, 0x0d, 0xf3, 0xe0, 0xe6, 0xff,
  0x17, 0x02, 0xfa, 0xbc, 0x04, 0x22, 0xbc, 0xfe, 0x00, 0xda, 0x03, 0xe8,
  0xd9, 0x01, 0x02, 0xfc, 0x31, 0xba, 0x26, 0xfc, 0xfd, 0x09, 0xc2, 0x23,
  0xdb, 0x06, 0xdd, 0x0e, 0xef, 0x1c, 0x7f, 0x17, 0x0a, 0x0d, 0x21, 0xd6,
  0x1f, 0x1b, 0x23, 0xf1, 0xf9, 0xbd, 0xea, 0xeb, 0x1e, 0x06, 0xe4, 0x0c,
  0x12, 0x2a, 0x11, 0xb1, 0x06, 0x02, 0x0a, 0x20, 0x09, 0xbf, 0x15, 0x05,
  0x16, 0x18, 0xf1, 0x1b, 0x19, 0xfc, 0x33, 0xea, 0xf5, 0x3d, 0x25, 0x2b,
  0x12, 0xf0, 0x0d, 0x11, 0x14, 0x18, 0x56, 0xf1, 0x1f, 0xc6, 0x12, 0x02,
  0xfa, 0xf4, 0xe3, 0x0c, 0xf1, 0xcb, 0xea, 0xfb, 0xfc, 0x16, 0xd2, 0xf8,
  0x23, 0xd5, 0xfd, 0xe1, 0xef, 0x10, 0xea, 0x00, 0x0d, 0xef, 0xe1, 0x0e,
  0xd5, 0x1e, 0xf9, 0x0a, 0x16, 0xd5, 0x34, 0xf5, 0x06, 0x3f, 0xf9, 0x1f,
  0x13, 0x0c, 0xeb, 0x03, 0xf0, 0x4a, 0x4e, 0x0f, 0xf4, 0xc7, 0x0f, 0xb6,
  0xe5, 0xfb, 0xc1, 0xef, 0xda, 0xd4, 0xee, 0xdd, 0xd8, 0x0e, 0x17, 0x08,
  0xde, 0xd1, 0xe9, 0x0d, 0xd9, 0x29, 0x13, 0x17, 0xfa, 0x20, 0x01, 0xf7,
  0xff, 0x16, 0x11, 0xfe, 0xe5, 0xf6, 0xc0, 0xfc, 0x18, 0x0c, 0xf3, 0xfd,
  0x03, 0x06, 0x09, 0xf7, 0x11, 0xe4, 0x25, 0xe6, 0x12, 0x18, 0x2f, 0xce,
  0xdd, 0x07, 0x12, 0x09, 0xf8, 0xcd, 0x15, 0x03, 0x06, 0x00, 0x01, 0x2c,
  0x2a, 0x1a, 0x16, 0x05, 0xcd, 0x12, 0x1a, 0x0d, 0x09, 0x02, 0x05, 0xf8,
  0x05, 0xf8, 0xf8, 0x12, 0xf3, 0x18, 0xe4, 0xe4, 0xf6, 0xff, 0x11, 0xff,
  0xfe, 0x01, 0x1b, 0xfc, 0x22, 0xec, 0x16, 0x0e, 0xf7, 0x04, 0x02, 0x81,
  0xf5, 0x0a, 0xeb, 0x02, 0xfa, 0xa5, 0xfb, 0x06, 0x09, 0x04, 0x92, 0xf0,
  0xed, 0x15, 0xde, 0x04, 0xf5, 0x08, 0x16, 0x00, 0x0e, 0xf0, 0x14, 0x0d,
  0x18, 0x11, 0xd1, 0xe5, 0xff, 0x1e, 0xfd, 0xb6, 0xfa, 0xfd, 0xfd, 0xf7,
  0x0a, 0xd1, 0x18, 0xfe, 0x1e, 0xfe, 0xa3, 0xdf, 0xea, 0x28, 0xf3, 0xed,
  0xf1, 0xf6, 0x2c, 0xf6, 0x13, 0xa1, 0x01, 0x26, 0x0e, 0x25, 0xed, 0xf2,
  0x13, 0x33, 0x0d, 0x94, 0x10, 0x20, 0x04, 0x0d, 0x1e, 0x81, 0x1b, 0x05,
  0x15, 0x14, 0x06, 0xf0, 0x0b, 0x04, 0x14, 0xcf, 0xdd, 0x09, 0xfa, 0x05,
  0x0f, 0xb7, 0x1e, 0xdc, 0xfd, 0x02, 0x44, 0x24, 0x13, 0xc0, 0xd4, 0xf6,
  0x0d, 0x11, 0xef, 0x03, 0x14, 0xe9, 0xef, 0xf5, 0x03, 0x17, 0x04, 0xfc,
  0xe9, 0x13, 0xe4, 0xca, 0xfe, 0x26, 0x03, 0xf0, 0xf8, 0xc6, 0xf3, 0xf8,
  0x0a, 0xfe, 0x38, 0xe6, 0xfc, 0xf9, 0x24, 0x01, 0xee, 0x29, 0x04, 0xfa,
  0x16, 0xf0, 0x14, 0x12, 0x1d, 0x23, 0x40, 0x0a, 0x1d, 0x08, 0xef, 0x01,
  0xdf, 0x21, 0xf4, 0xf3, 0x13, 0xf0, 0xf6, 0x06, 0x20, 0xd5, 0xcf, 0xdf,
  0x14, 0x0a, 0xf7, 0xfd, 0x12, 0x16, 0xfe, 0x0d, 0xf7, 0xd3, 0xf9, 0xe9,
  0xe4, 0xf1, 0x2a, 0x0d, 0x21, 0xcb, 0x42, 0x27, 0x0f, 0x2c, 0xda, 0x28,
  0xf2, 0x13, 0xfe, 0xfd, 0xe3, 0x34, 0x4e, 0x14, 0xef, 0xd2, 0xf4, 0x9d,
  0x9b, 0x31, 0xfb, 0x38, 0xc8, 0xdd, 0x36, 0xc6, 0x21, 0xea, 0x81, 0xc7,
  0x0f, 0x16, 0x22, 0xe9, 0xd2, 0x22, 0x1c, 0xf3, 0xf6, 0xf6, 0x2b, 0x1a,
  0x05, 0x06, 0xdf, 0x02, 0x16, 0xf6, 0x07, 0x13, 0xcb, 0x19, 0x0a, 0x03,
  0xc4, 0x0a, 0xcf, 0xe9, 0xd6, 0xe1, 0xcc, 0xe0, 0x08, 0xe1, 0xec, 0xc8,
  0xe9, 0x26, 0xe0, 0x12, 0x05, 0x05, 0x2f, 0xe2, 0x15, 0x12, 0xd4, 0xd4,
  0x22, 0x15, 0x2b, 0x09, 0x0b, 0x17, 0xe8, 0xfe, 0xee, 0x0c, 0xfe, 0x0c,
  0xe6, 0x1e, 0xc3, 0xf9, 0x17, 0xee, 0xec, 0xfb, 0x07, 0xe8, 0xf0, 0xf1,
  0xd4, 0xfb, 0xb7, 0xfa, 0xd6, 0x06, 0xcc, 0xc3, 0x3c, 0x34, 0x2b, 0xd5,
  0xf0, 0x25, 0x0a, 0x33, 0xef, 0xfa, 0x29, 0x06, 0x06, 0x05, 0xb0, 0x3a,
  0x34, 0x35, 0x21, 0x10, 0x0c, 0x0f, 0x0c, 0x18, 0xf7, 0x1e, 0x04, 0x17,
  0x00, 0x16, 0xdf, 0x3c, 0x22, 0x18, 0x03, 0x00, 0x20, 0xed, 0x15, 0xd6,
  0xe8, 0x0c, 0xbe, 0xe9, 0xe7, 0xf5, 0xd9, 0x29, 0xbb, 0xf9, 0xa8, 0xdf,
  0x08, 0xca, 0xe3, 0xb7, 0xf4, 0xc7, 0xd0, 0xf4, 0xe5, 0xc1, 0x1f, 0xb3,
  0xbb, 0xe0, 0xb0, 0xe7, 0xd4, 0xc5, 0xe0, 0xc1, 0xf6, 0xcb, 0xc6, 0xcc,
  0xed, 0xbd, 0xc1, 0xc8, 0xcf, 0xe6, 0xcc, 0xcc, 0xd9, 0xd0, 0x0c, 0xc8,
  0xe4, 0xc1, 0x0a, 0xeb, 0xf8, 0xd1, 0xbd, 0xd9, 0x11, 0x06, 0x25, 0xea,
  0x81, 0xdd, 0xf0, 0xfa, 0xfe, 0x09, 0xf8, 0xf9, 0xf2, 0xca, 0xfc, 0x1e,
  0x1d, 0xf1, 0x0e, 0xf5, 0x92, 0x12, 0xff, 0x00, 0xdf, 0x11, 0xe7, 0xec,
  0xe0, 0xfd, 0x0b, 0xf7, 0x26, 0xc7, 0x37, 0x0e, 0xf1, 0x04, 0xd6, 0xe4,
  0xc9, 0x06, 0xb4, 0xc9, 0xaa, 0x04, 0x2b, 0xec, 0x2f, 0x5b, 0x1c, 0xe6,
  0x0d, 0x00, 0x1e, 0x07, 0x24, 0xef, 0x13, 0x2d, 0x34, 0xf5, 0xf0, 0xfb,
  0x31, 0x38, 0x2b, 0xff, 0xdf, 0x20, 0xef, 0xf7, 0x03, 0x06, 0x0f, 0x12,
  0x12, 0x04, 0xf0, 0x16, 0x22, 0x07, 0x1b, 0x0d, 0xa9, 0x17, 0xc6, 0xed,
  0xce, 0x1c, 0xde, 0xd4, 0xf7, 0xd4, 0x0e, 0xe8, 0xf3, 0xb5, 0xd5, 0x08,
  0x9c, 0xf2, 0xd3, 0xcc, 0xce, 0x1c, 0xc5, 0xa6, 0xdc, 0xfd, 0xe4, 0x8f,
  0x2d, 0xc0, 0x47, 0xfa, 0xb5, 0xfb, 0x14, 0x1e, 0xc3, 0x1d, 0x1c, 0xc9,
  0xfd, 0x13, 0xfc, 0xf7, 0x40, 0x28, 0x22, 0x13, 0x0c, 0x43, 0x1f, 0x23,
  0xe0, 0x32, 0x50, 0x19, 0xf3, 0x1b, 0xfd, 0x41, 0x34, 0x81, 0xe7, 0x0e,
  0xc4, 0xf2, 0xe3, 0xf4, 0xcb, 0x1d, 0x08, 0xba, 0xc9, 0xbb, 0xf3, 0xc0,
  0x1a, 0xa2, 0x09, 0x2c, 0x01, 0x19, 0xfa, 0xf2, 0xbe, 0x1c, 0x2d, 0xcf,
  0xd7, 0x0f, 0xe8, 0x10, 0x37, 0x2d, 0x17, 0xfc, 0x02, 0x49, 0x5b, 0x21,
  0xe8, 0x18, 0x48, 0x17, 0x19, 0x19, 0xd9, 0x35, 0xcf, 0xd5, 0xe0, 0x0e,
  0xf1, 0xf7, 0x16, 0xeb, 0x0f, 0x0d, 0xed, 0xf5, 0xe8, 0xff, 0x11, 0xfd,
  0x23, 0xc5, 0x64, 0x01, 0x1f, 0x2c, 0x28, 0xf9, 0x09, 0x27, 0x21, 0x0c,
  0xf8, 0x14, 0xe7, 0x59, 0x66, 0x58, 0x2f, 0x32, 0x13, 0x4c, 0x1d, 0x01,
  0x22, 0x2d, 0x0e, 0x48, 0xd0, 0x39, 0xfe, 0x3e, 0xc2, 0xcd, 0xbb, 0xe6,
  0x81, 0xd2, 0xcc, 0xd8, 0xab, 0xe3, 0xcb, 0x8c, 0x9b, 0xc0, 0x01, 0xaf,
  0xc0, 0xd5, 0xc3, 0x11, 0xc7, 0xfe, 0x1d, 0xff, 0xfb, 0x18, 0x1b, 0xe8,
  0x13, 0xf3, 0x27, 0xce, 0x26, 0x07, 0xfe, 0x1a, 0x1c, 0x25, 0xf3, 0xfa,
  0x0b, 0x2a, 0x08, 0x04, 0x0b, 0xf7, 0x0a, 0x02, 0xe0, 0xd2, 0xa7, 0xdd,
  0x9c, 0xe6, 0xd6, 0xda, 0xc9, 0xd9, 0xc4, 0xb0, 0xe2, 0xcb, 0x03, 0xce,
  0xba, 0x24, 0xcb, 0x12, 0xd4, 0xf1, 0x13, 0x0d, 0x02, 0x11, 0x12, 0xed,
  0x1d, 0xec, 0x0e, 0xeb, 0x04, 0x22, 0xee, 0xf9, 0x10, 0x24, 0x06, 0xf4,
  0x13, 0x11, 0x0c, 0x08, 0x17, 0xee, 0x04, 0x06, 0xed, 0xcd, 0xc5, 0xd8,
  0x92, 0xe2, 0xb8, 0xd6, 0xc3, 0xe1, 0xc2, 0xb0, 0xc9, 0xd1, 0xf3, 0xc3,
  0xd1, 0xf1, 0xc7, 0x0b, 0xe3, 0xf2, 0x21, 0x18, 0x0c, 0x01, 0x10, 0xf9,
  0x1d, 0x06, 0x0f, 0xde, 0x21, 0x1b, 0x08, 0x19, 0x1c, 0x27, 0x0e, 0x0f,
  0x1b, 0x11, 0x13, 0x08, 0x0c, 0x09, 0x1a, 0x00, 0x15, 0xc2, 0xe0, 0x31,
  0xd0, 0xde, 0xd9, 0xf1, 0xe8, 0x27, 0xd8, 0xd1, 0xf3, 0xf5, 0x00, 0xba,
  0x22, 0xdc, 0x0a, 0x12, 0x02, 0x1a, 0x0a, 0x1d, 0xf6, 0x29, 0x2f, 0x15,
  0xfd, 0x19, 0xf6, 0x01, 0x4b, 0x37, 0x3f, 0x03, 0x32, 0x2f, 0x41, 0x0e,
  0x0e, 0x0f, 0x55, 0x22, 0x0e, 0x3d, 0xf0, 0x5d, 0xc7, 0xbe, 0xcd, 0x27,
  0xc8, 0xe4, 0xd6, 0xfc, 0xdc, 0xff, 0xc5, 0xc6, 0xe1, 0x10, 0x0c, 0xef,
  0x1f, 0xe0, 0x0a, 0x03, 0x1a, 0x19, 0x29, 0x11, 0xfb, 0x14, 0x22, 0x20,
  0xea, 0x1d, 0xe0, 0x13, 0x27, 0x06, 0x41, 0x1e, 0x10, 0x18, 0x25, 0x2b,
  0x17, 0x0b, 0x0a, 0x45, 0xe6, 0x26, 0xdb, 0x4b, 0x01, 0x81, 0xd3, 0x00,
  0x9b, 0xd5, 0xba, 0xdd, 0x9e, 0x21, 0xc5, 0x96, 0xcd, 0xd5, 0xf6, 0xb8,
  0x10, 0xb2, 0x44, 0x2d, 0xfe, 0x32, 0xf8, 0xec, 0xec, 0x29, 0xf3, 0xd6,
  0xe4, 0x21, 0x0b, 0xec, 0x40, 0x0a, 0x2d, 0x30, 0xce, 0x1f, 0x05, 0xfa,
  0xd0, 0x19, 0xf4, 0x16, 0xc7, 0x28, 0x07, 0x37, 0xc3, 0xb4, 0xce, 0xea,
  0x81, 0x04, 0xd4, 0xde, 0xef, 0xdb, 0x32, 0xcf, 0xf0, 0xf8, 0xb1, 0x98,
  0x39, 0x48, 0x72, 0x32, 0x19, 0x2e, 0xee, 0xfb, 0xe7, 0x4e, 0x2d, 0x25,
  0xdb, 0x15, 0xe8, 0x18, 0xbd, 0xfa, 0xe4, 0x31, 0xe9, 0x94, 0x56, 0x2e,
  0x0b, 0x13, 0x17, 0xe9, 0x2e, 0xe2, 0x0a, 0x0f, 0xd5, 0xa7, 0xb3, 0xae,
  0xba, 0xed, 0xdd, 0x03, 0xd0, 0xe7, 0x33, 0xe4, 0xf5, 0xbb, 0xbe, 0xd8,
  0x23, 0xfa, 0x3c, 0x35, 0xf9, 0x15, 0x13, 0x37, 0xf9, 0x0f, 0x28, 0x24,
  0xe1, 0x11, 0xaf, 0xde, 0xf9, 0xf9, 0xec, 0x21, 0x02, 0x9f, 0x56, 0x3d,
  0x05, 0xf7, 0x30, 0x16, 0x0f, 0xdd, 0x1e, 0x04, 0xe9, 0xdd, 0xe4, 0x06,
  0xc1, 0xd5, 0x1e, 0x05, 0xde, 0xff, 0x22, 0xee, 0x09, 0x17, 0xd7, 0xec,
  0x50, 0x1e, 0x74, 0x37, 0x14, 0x3a, 0x03, 0x25, 0xe0, 0x1e, 0x08, 0x27,
  0xc9, 0x35, 0xe9, 0x33, 0xd3, 0x02, 0x12, 0x2b, 0x29, 0x9c, 0x37, 0xf2,
  0x1f, 0x1c, 0xd5, 0x23, 0xf1, 0x17, 0xfa, 0x2d, 0xc1, 0x0e, 0xe7, 0x24,
  0xdd, 0xfb, 0xb7, 0xd3, 0x28, 0xb6, 0x23, 0x0d, 0x08, 0xdb, 0x2a, 0x13,
  0xfd, 0x0f, 0x12, 0xfe, 0x00, 0x3a, 0x14, 0xe6, 0xfc, 0x2c, 0x19, 0x31,
  0x3a, 0x1d, 0x01, 0xe5, 0xb5, 0xf9, 0xed, 0xd8, 0xfa, 0x11, 0xc6, 0xb7,
  0xb8, 0xfe, 0xcf, 0xfd, 0xfe, 0xc4, 0xb1, 0x0c, 0x1e, 0xbf, 0xcb, 0xf6,
  0x02, 0x2f, 0xfb, 0xec, 0xe5, 0x03, 0xd7, 0xd9, 0x42, 0x1c, 0x3e, 0xfc,
  0x11, 0x07, 0x37, 0xc7, 0xbc, 0x15, 0x3a, 0xc8, 0xc3, 0xbc, 0x17, 0xae,
  0x27, 0xf6, 0xb0, 0xad, 0x07, 0x24, 0x15, 0x81, 0x13, 0x31, 0xc4, 0xd3,
  0x3f, 0x9a, 0xc6, 0xec, 0xf9, 0x19, 0xca, 0x06, 0xe3, 0xf6, 0x20, 0xf6,
  0xc1, 0xbb, 0xe3, 0xee, 0xb2, 0x25, 0xd8, 0x31, 0x1a, 0xf8, 0xff, 0x0a,
  0xf0, 0x18, 0x3e, 0xd8, 0x20, 0x35, 0x23, 0x0d, 0x24, 0xee, 0xc3, 0xc1,
  0xdc, 0x1b, 0x28, 0x0f, 0x0b, 0xfd, 0xad, 0xcb, 0xc3, 0xfd, 0x0c, 0x0a,
  0xbc, 0x9f, 0x28, 0xb4, 0xc2, 0xc9, 0xd5, 0x1c, 0x62, 0xfe, 0xff, 0xff,
  0x04, 0x00, 0x00, 0x00, 0x60, 0x00, 0x00, 0x00, 0xe0, 0x00, 0x00, 0x00,
  0x5d, 0xff, 0xff, 0xff, 0xef, 0xff, 0xff, 0xff, 0xe7, 0xff, 0xff, 0xff,
  0x60, 0x01, 0x00, 0x00, 0xae, 0x00, 0x00, 0x00, 0x87, 0xff, 0xff, 0xff,
  0x0e, 0x00, 0x00, 0x00, 0x2c, 0x00, 0x00, 0x00, 0x76, 0xff, 0xff, 0xff,
  0x8b, 0x00, 0x00, 0x00, 0xe8, 0xff, 0xff, 0xff, 0x2e, 0xff, 0xff, 0xff,
  0xed, 0x00, 0x00, 0x00, 0xa7, 0x00, 0x00, 0x00, 0xf5, 0xff, 0xff, 0xff,
  0xc1, 0x00, 0x00, 0x00, 0x4e, 0xff, 0xff, 0xff, 0x72, 0xfe, 0xff, 0xff,
  0xc5, 0x00, 0x00, 0x00, 0x25, 0x01, 0x00, 0x00, 0x74, 0x00, 0x00, 0x00,
  0xbc, 0xff, 0xff, 0xff, 0x42, 0xff, 0xff, 0xff, 0xce, 0xfe, 0xff, 0xff,
  0x04, 0x00, 0x00, 0x00, 0x30, 0x00, 0x00, 0x00, 0x0c, 0xf5, 0xe6, 0x20,
  0xe3, 0x09, 0xe9, 0xed, 0x1d, 0xed, 0x0f, 0x18, 0xec, 0x3c, 0x0e, 0x21,
  0x0e, 0xdb, 0x7f, 0xf0, 0x17, 0xef, 0xd9, 0x12, 0xf8, 0x0e, 0x17, 0xda,
  0x26, 0xea, 0xfe, 0x13, 0xe3, 0x17, 0xe9, 0xf0, 0x0d, 0xd3, 0xe7, 0xd6,
  0xf1, 0x06, 0x8a, 0x1e, 0xca, 0x20, 0x29, 0xef, 0x0a, 0xff, 0xff, 0xff,
  0x04, 0x00, 0x00, 0x00, 0x08, 0x00, 0x00, 0x00, 0x11, 0x00, 0x00, 0x00,
  0xef, 0xff, 0xff, 0xff, 0x1e, 0xff, 0xff, 0xff, 0x04, 0x00, 0x00, 0x00,
  0x08, 0x00, 0x00, 0x00, 0x01, 0x00, 0x00, 0x00, 0x02, 0x00, 0x00, 0x00,
  0x54, 0xed, 0xff, 0xff, 0x58, 0xed, 0xff, 0xff, 0x0f, 0x00, 0x00, 0x00,
  0x4d, 0x4c, 0x49, 0x52, 0x20, 0x43, 0x6f, 0x6e, 0x76, 0x65, 0x72, 0x74,
  0x65, 0x64, 0x2e, 0x00, 0x01, 0x00, 0x00, 0x00, 0x14, 0x00, 0x00, 0x00,
  0x00, 0x00, 0x0e, 0x00, 0x18, 0x00, 0x14, 0x00, 0x10, 0x00, 0x0c, 0x00,
  0x08, 0x00, 0x04, 0x00, 0x0e, 0x00, 0x00, 0x00, 0x14, 0x00, 0x00, 0x00,
  0x1c, 0x00, 0x00, 0x00, 0xe4, 0x02, 0x00, 0x00, 0xe8, 0x02, 0x00, 0x00,
  0xec, 0x02, 0x00, 0x00, 0x04, 0x00, 0x00, 0x00, 0x6d, 0x61, 0x69, 0x6e,
  0x00, 0x00, 0x00, 0x00, 0x0b, 0x00, 0x00, 0x00, 0xac, 0x02, 0x00, 0x00,
  0x50, 0x02, 0x00, 0x00, 0xec, 0x01, 0x00, 0x00, 0xa8, 0x01, 0x00, 0x00,
  0x64, 0x01, 0x00, 0x00, 0x20, 0x01, 0x00, 0x00, 0xdc, 0x00, 0x00, 0x00,
  0xa8, 0x00, 0x00, 0x00, 0x70, 0x00, 0x00, 0x00, 0x34, 0x00, 0x00, 0x00,
  0x10, 0x00, 0x00, 0x00, 0x00, 0x00, 0x0a, 0x00, 0x10, 0x00, 0x0c, 0x00,
  0x08, 0x00, 0x04, 0x00, 0x0a, 0x00, 0x00, 0x00, 0x0c, 0x00, 0x00, 0x00,
  0x10, 0x00, 0x00, 0x00, 0x06, 0x00, 0x00, 0x00, 0x01, 0x00, 0x00, 0x00,
  0x14, 0x00, 0x00, 0x00, 0x01, 0x00, 0x00, 0x00, 0x13, 0x00, 0x00, 0x00,
  0x12, 0xfe, 0xff, 0xff, 0x1c, 0x00, 0x00, 0x00, 0x00, 0x00, 0x00, 0x09,
  0x1c, 0x00, 0x00, 0x00, 0x20, 0x00, 0x00, 0x00, 0x05, 0x00, 0x00, 0x00,
  0x00, 0x00, 0x06, 0x00, 0x08, 0x00, 0x04, 0x00, 0x06, 0x00, 0x00, 0x00,
  0x00, 0x00, 0x80, 0x3f, 0x01, 0x00, 0x00, 0x00, 0x13, 0x00, 0x00, 0x00,
  0x01, 0x00, 0x00, 0x00, 0x12, 0x00, 0x00, 0x00, 0x4a, 0xfe, 0xff, 0xff,
  0x14, 0x00, 0x00, 0x00, 0x00, 0x00, 0x00, 0x08, 0x10, 0x00, 0x00, 0x00,
  0x14, 0x00, 0x00, 0x00, 0x04, 0x00, 0x00, 0x00, 0x58, 0xee, 0xff, 0xff,
  0x01, 0x00, 0x00, 0x00, 0x12, 0x00, 0x00, 0x00, 0x03, 0x00, 0x00, 0x00,
  0x11, 0x00, 0x00, 0x00, 0x03, 0x00, 0x00, 0x00, 0x02, 0x00, 0x00, 0x00,
  0x7e, 0xfe, 0xff, 0xff, 0x14, 0x00, 0x00, 0x00, 0x00, 0x00, 0x00, 0x1b,
  0x10, 0x00, 0x00, 0x00, 0x14, 0x00, 0x00, 0x00, 0x03, 0x00, 0x00, 0x00,
  0x8c, 0xee, 0xff, 0xff, 0x01, 0x00, 0x00, 0x00, 0x11, 0x00, 0x00, 0x00,
  0x02, 0x00, 0x00, 0x00, 0x10, 0x00, 0x00, 0x00, 0x01, 0x00, 0x00, 0x00,
  0xae, 0xfe, 0xff, 0xff, 0x14, 0x00, 0x00, 0x00, 0x00, 0x00, 0x00, 0x05,
  0x24, 0x00, 0x00, 0x00, 0x28, 0x00, 0x00, 0x00, 0x02, 0x00, 0x00, 0x00,
  0xfe, 0xfe, 0xff, 0xff, 0x02, 0x00, 0x00, 0x00, 0x02, 0x00, 0x00, 0x00,
  0x02, 0x00, 0x00, 0x00, 0x02, 0x00, 0x00, 0x00, 0x00, 0x00, 0x00, 0x01,
  0x01, 0x00, 0x00, 0x00, 0x10, 0x00, 0x00, 0x00, 0x01, 0x00, 0x00, 0x00,
  0x0f, 0x00, 0x00, 0x00, 0xee, 0xfe, 0xff, 0xff, 0x14, 0x00, 0x00, 0x00,
  0x00, 0x00, 0x00, 0x01, 0x1c, 0x00, 0x00, 0x00, 0x20, 0x00, 0x00, 0x00,
  0x01, 0x00, 0x00, 0x00, 0xe0, 0xfe, 0xff, 0xff, 0x00, 0x00, 0x00, 0x01,
  0x01, 0x00, 0x00, 0x00, 0x01, 0x00, 0x00, 0x00, 0x01, 0x00, 0x00, 0x00,
  0x0f, 0x00, 0x00, 0x00, 0x03, 0x00, 0x00, 0x00, 0x0e, 0x00, 0x00, 0x00,
  0x05, 0x00, 0x00, 0x00, 0x04, 0x00, 0x00, 0x00, 0x2e, 0xff, 0xff, 0xff,
  0x14, 0x00, 0x00, 0x00, 0x00, 0x00, 0x00, 0x05, 0x24, 0x00, 0x00, 0x00,
  0x28, 0x00, 0x00, 0x00, 0x02, 0x00, 0x00, 0x00, 0x7e, 0xff, 0xff, 0xff,
  0x02, 0x00, 0x00, 0x00, 0x02, 0x00, 0x00, 0x00, 0x02, 0x00, 0x00, 0x00,
  0x02, 0x00, 0x00, 0x00, 0x00, 0x00, 0x00, 0x01, 0x01, 0x00, 0x00, 0x00,
  0x0e, 0x00, 0x00, 0x00, 0x01, 0x00, 0x00, 0x00, 0x0d, 0x00, 0x00, 0x00,
  0x6e, 0xff, 0xff, 0xff, 0x14, 0x00, 0x00, 0x00, 0x00, 0x00, 0x00, 0x01,
  0x1c, 0x00, 0x00, 0x00, 0x20, 0x00, 0x00, 0x00, 0x01, 0x00, 0x00, 0x00,
  0x60, 0xff, 0xff, 0xff, 0x00, 0x00, 0x00, 0x01, 0x01, 0x00, 0x00, 0x00,
  0x01, 0x00, 0x00, 0x00, 0x01, 0x00, 0x00, 0x00, 0x0d, 0x00, 0x00, 0x00,
  0x03, 0x00, 0x00, 0x00, 0x0c, 0x00, 0x00, 0x00, 0x07, 0x00, 0x00, 0x00,
  0x06, 0x00, 0x00, 0x00, 0xae, 0xff, 0xff, 0xff, 0x24, 0x00, 0x00, 0x00,
  0x00, 0x00, 0x00, 0x05, 0x34, 0x00, 0x00, 0x00, 0x38, 0x00, 0x00, 0x00,
  0x02, 0x00, 0x00, 0x00, 0x00, 0x00, 0x0e, 0x00, 0x18, 0x00, 0x17, 0x00,
  0x10, 0x00, 0x0c, 0x00, 0x08, 0x00, 0x04, 0x00, 0x0e, 0x00, 0x00, 0x00,
  0x02, 0x00, 0x00, 0x00, 0x02, 0x00, 0x00, 0x00, 0x02, 0x00, 0x00, 0x00,
  0x02, 0x00, 0x00, 0x00, 0x00, 0x00, 0x00, 0x01, 0x01, 0x00, 0x00, 0x00,
  0x0c, 0x00, 0x00, 0x00, 0x01, 0x00, 0x00, 0x00, 0x0b, 0x00, 0x00, 0x00,
  0x00, 0x00, 0x0e, 0x00, 0x18, 0x00, 0x14, 0x00, 0x10, 0x00, 0x0c, 0x00,
  0x0b, 0x00, 0x04, 0x00, 0x0e, 0x00, 0x00, 0x00, 0x20, 0x00, 0x00, 0x00,
  0x00, 0x00, 0x00, 0x01, 0x28, 0x00, 0x00, 0x00, 0x2c, 0x00, 0x00, 0x00,
  0x01, 0x00, 0x00, 0x00, 0x0c, 0x00, 0x10, 0x00, 0x00, 0x00, 0x0c, 0x00,
  0x08, 0x00, 0x07, 0x00, 0x0c, 0x00, 0x00, 0x00, 0x00, 0x00, 0x00, 0x01,
  0x01, 0x00, 0x00, 0x00, 0x01, 0x00, 0x00, 0x00, 0x01, 0x00, 0x00, 0x00,
  0x0b, 0x00, 0x00, 0x00, 0x03, 0x00, 0x00, 0x00, 0x0a, 0x00, 0x00, 0x00,
  0x09, 0x00, 0x00, 0x00, 0x08, 0x00, 0x00, 0x00, 0x00, 0x00, 0x0a, 0x00,
  0x0c, 0x00, 0x00, 0x00, 0x08, 0x00, 0x04, 0x00, 0x0a, 0x00, 0x00, 0x00,
  0x08, 0x00, 0x00, 0x00, 0x0c, 0x00, 0x00, 0x00, 0x01, 0x00, 0x00, 0x00,
  0x0a, 0x00, 0x00, 0x00, 0x01, 0x00, 0x00, 0x00, 0x00, 0x00, 0x00, 0x00,
  0x01, 0x00, 0x00, 0x00, 0x14, 0x00, 0x00, 0x00, 0x01, 0x00, 0x00, 0x00,
  0x00, 0x00, 0x00, 0x00, 0x15, 0x00, 0x00, 0x00, 0x44, 0x0f, 0x00, 0x00,
  0xec, 0x0e, 0x00, 0x00, 0x68, 0x0e, 0x00, 0x00, 0x00, 0x0e, 0x00, 0x00,
  0x8c, 0x0c, 0x00, 0x00, 0x08, 0x0b, 0x00, 0x00, 0xf4, 0x09, 0x00, 0x00,
  0xd0, 0x08, 0x00, 0x00, 0x1c, 0x08, 0x00, 0x00, 0x58, 0x07, 0x00, 0x00,
  0xd4, 0x06, 0x00, 0x00, 0xd0, 0x05, 0x00, 0x00, 0x34, 0x05, 0x00, 0x00,
  0x40, 0x04, 0x00, 0x00, 0xa4, 0x03, 0x00, 0x00, 0xb0, 0x02, 0x00, 0x00,
  0x14, 0x02, 0x00, 0x00, 0x80, 0x01, 0x00, 0x00, 0xe4, 0x00, 0x00, 0x00,
  0x60, 0x00, 0x00, 0x00, 0x04, 0x00, 0x00, 0x00, 0x26, 0xf1, 0xff, 0xff,
  0x00, 0x00, 0x00, 0x01, 0x14, 0x00, 0x00, 0x00, 0x1c, 0x00, 0x00, 0x00,
  0x1c, 0x00, 0x00, 0x00, 0x15, 0x00, 0x00, 0x00, 0x34, 0x00, 0x00, 0x00,
  0x02, 0x00, 0x00, 0x00, 0xff, 0xff, 0xff, 0xff, 0x02, 0x00, 0x00, 0x00,
  0x08, 0xf1, 0xff, 0xff, 0x1b, 0x00, 0x00, 0x00, 0x53, 0x74, 0x61, 0x74,
  0x65, 0x66, 0x75, 0x6c, 0x50, 0x61, 0x72, 0x74, 0x69, 0x74, 0x69, 0x6f,
  0x6e, 0x65, 0x64, 0x43, 0x61, 0x6c, 0x6c, 0x5f, 0x31, 0x3a, 0x30, 0x00,
  0x02, 0x00, 0x00, 0x00, 0x01, 0x00, 0x00, 0x00, 0x02, 0x00, 0x00, 0x00,
  0xc6, 0xf9, 0xff, 0xff, 0x00, 0x00, 0x00, 0x01, 0x18, 0x00, 0x00, 0x00,
  0x20, 0x00, 0x00, 0x00, 0x40, 0x00, 0x00, 0x00, 0x14, 0x00, 0x00, 0x00,
  0x00, 0x00, 0x00, 0x09, 0x58, 0x00, 0x00, 0x00, 0x02, 0x00, 0x00, 0x00,
  0xff, 0xff, 0xff, 0xff, 0x02, 0x00, 0x00, 0x00, 0x4c, 0xf2, 0xff, 0xff,
  0x08, 0x00, 0x00, 0x00, 0x14, 0x00, 0x00, 0x00, 0x01, 0x00, 0x00, 0x00,
  0x80, 0xff, 0xff, 0xff, 0xff, 0xff, 0xff, 0xff, 0x00, 0x00, 0x00, 0x00,
  0x01, 0x00, 0x00, 0x00, 0x00, 0x00, 0x80, 0x3b, 0x1c, 0x00, 0x00, 0x00,
  0x53, 0x74, 0x61, 0x74, 0x65, 0x66, 0x75, 0x6c, 0x50, 0x61, 0x72, 0x74,
  0x69, 0x74, 0x69, 0x6f, 0x6e, 0x65, 0x64, 0x43, 0x61, 0x6c, 0x6c, 0x5f,
  0x31, 0x3a, 0x30, 0x31, 0x00, 0x00, 0x00, 0x00, 0x02, 0x00, 0x00, 0x00,
  0x01, 0x00, 0x00, 0x00, 0x02, 0x00, 0x00, 0x00, 0x46, 0xfa, 0xff, 0xff,
  0x00, 0x00, 0x00, 0x01, 0x18, 0x00, 0x00, 0x00, 0x20, 0x00, 0x00, 0x00,
  0x3c, 0x00, 0x00, 0x00, 0x13, 0x00, 0x00, 0x00, 0x00, 0x00, 0x00, 0x09,
  0x70, 0x00, 0x00, 0x00, 0x02, 0x00, 0x00, 0x00, 0xff, 0xff, 0xff, 0xff,
  0x02, 0x00, 0x00, 0x00, 0xcc, 0xf2, 0xff, 0xff, 0x08, 0x00, 0x00, 0x00,
  0x10, 0x00, 0x00, 0x00, 0x01, 0x00, 0x00, 0x00, 0x1b, 0x00, 0x00, 0x00,
  0x00, 0x00, 0x00, 0x00, 0x01, 0x00, 0x00, 0x00, 0x01, 0x4d, 0x12, 0x3d,
  0x38, 0x00, 0x00, 0x00, 0x66, 0x75, 0x6e, 0x63, 0x74, 0x69, 0x6f, 0x6e,
  0x61, 0x6c, 0x5f, 0x31, 0x2f, 0x64, 0x65, 0x6e, 0x73, 0x65, 0x5f, 0x31,
  0x2f, 0x4d, 0x61, 0x74, 0x4d, 0x75, 0x6c, 0x3b, 0x66, 0x75, 0x6e, 0x63,
  0x74, 0x69, 0x6f, 0x6e, 0x61, 0x6c, 0x5f, 0x31, 0x2f, 0x64, 0x65, 0x6e,
  0x73, 0x65, 0x5f, 0x31, 0x2f, 0x42, 0x69, 0x61, 0x73, 0x41, 0x64, 0x64,
  0x00, 0x00, 0x00, 0x00, 0x02, 0x00, 0x00, 0x00, 0x01, 0x00, 0x00, 0x00,
  0x02, 0x00, 0x00, 0x00, 0xde, 0xfa, 0xff, 0xff, 0x00, 0x00, 0x00, 0x01,
  0x18, 0x00, 0x00, 0x00, 0x20, 0x00, 0x00, 0x00, 0x40, 0x00, 0x00, 0x00,
  0x12, 0x00, 0x00, 0x00, 0x00, 0x00, 0x00, 0x09, 0x68, 0x00, 0x00, 0x00,
  0x02, 0x00, 0x00, 0x00, 0xff, 0xff, 0xff, 0xff, 0x18, 0x00, 0x00, 0x00,
  0x64, 0xf3, 0xff, 0xff, 0x08, 0x00, 0x00, 0x00, 0x14, 0x00, 0x00, 0x00,
  0x01, 0x00, 0x00, 0x00, 0x80, 0xff, 0xff, 0xff, 0xff, 0xff, 0xff, 0xff,
  0x00, 0x00, 0x00, 0x00, 0x01, 0x00, 0x00, 0x00, 0xe2, 0x77, 0x94, 0x3c,
  0x2c, 0x00, 0x00, 0x00, 0x66, 0x75, 0x6e, 0x63, 0x74, 0x69, 0x6f, 0x6e,
  0x61, 0x6c, 0x5f, 0x31, 0x2f, 0x67, 0x6c, 0x6f, 0x62, 0x61, 0x6c, 0x5f,
  0x61, 0x76, 0x65, 0x72, 0x61, 0x67, 0x65, 0x5f, 0x70, 0x6f, 0x6f, 0x6c,
  0x69, 0x6e, 0x67, 0x32, 0x64, 0x5f, 0x31, 0x2f, 0x4d, 0x65, 0x61, 0x6e,
  0x00, 0x00, 0x00, 0x00, 0x02, 0x00, 0x00, 0x00, 0x01, 0x00, 0x00, 0x00,
  0x18, 0x00, 0x00, 0x00, 0x6e, 0xfb, 0xff, 0xff, 0x00, 0x00, 0x00, 0x01,
  0x18, 0x00, 0x00, 0x00, 0x28, 0x00, 0x00, 0x00, 0x44, 0x00, 0x00, 0x00,
  0x11, 0x00, 0x00, 0x00, 0x00, 0x00, 0x00, 0x09, 0x68, 0x00, 0x00, 0x00,
  0x04, 0x00, 0x00, 0x00, 0xff, 0xff, 0xff, 0xff, 0x08, 0x00, 0x00, 0x00,
  0x0f, 0x00, 0x00, 0x00, 0x18, 0x00, 0x00, 0x00, 0xfc, 0xf3, 0xff, 0xff,
  0x08, 0x00, 0x00, 0x00, 0x10, 0x00, 0x00, 0x00, 0x01, 0x00, 0x00, 0x00,
  0x80, 0xff, 0xff, 0xff, 0xff, 0xff, 0xff, 0xff, 0x01, 0x00, 0x00, 0x00,
  0xf2, 0xe1, 0xf2, 0x3d, 0x28, 0x00, 0x00, 0x00, 0x66, 0x75, 0x6e, 0x63,
  0x74, 0x69, 0x6f, 0x6e, 0x61, 0x6c, 0x5f, 0x31, 0x2f, 0x6d, 0x61, 0x78,
  0x5f, 0x70, 0x6f, 0x6f, 0x6c, 0x69, 0x6e, 0x67, 0x32, 0x64, 0x5f, 0x32,
  0x5f, 0x31, 0x2f, 0x4d, 0x61, 0x78, 0x50, 0x6f, 0x6f, 0x6c, 0x32, 0x64,
  0x00, 0x00, 0x00, 0x00, 0x04, 0x00, 0x00, 0x00, 0x01, 0x00, 0x00, 0x00,
  0x08, 0x00, 0x00, 0x00, 0x0f, 0x00, 0x00, 0x00, 0x18, 0x00, 0x00, 0x00,
  0x06, 0xfc, 0xff, 0xff, 0x00, 0x00, 0x00, 0x01, 0x18, 0x00, 0x00, 0x00,
  0x28, 0x00, 0x00, 0x00, 0x44, 0x00, 0x00, 0x00, 0x10, 0x00, 0x00, 0x00,
  0x00, 0x00, 0x00, 0x09, 0xc0, 0x00, 0x00, 0x00, 0x04, 0x00, 0x00, 0x00,
  0xff, 0xff, 0xff, 0xff, 0x10, 0x00, 0x00, 0x00, 0x1f, 0x00, 0x00, 0x00,
  0x18, 0x00, 0x00, 0x00, 0x94, 0xf4, 0xff, 0xff, 0x08, 0x00, 0x00, 0x00,
  0x10, 0x00, 0x00, 0x00, 0x01, 0x00, 0x00, 0x00, 0x80, 0xff, 0xff, 0xff,
  0xff, 0xff, 0xff, 0xff, 0x01, 0x00, 0x00, 0x00, 0xf2, 0xe1, 0xf2, 0x3d,
  0x80, 0x00, 0x00, 0x00, 0x66, 0x75, 0x6e, 0x63, 0x74, 0x69, 0x6f, 0x6e,
  0x61, 0x6c, 0x5f, 0x31, 0x2f, 0x63, 0x6f, 0x6e, 0x76, 0x32, 0x64, 0x5f,
  0x32, 0x5f, 0x31, 0x2f, 0x52, 0x65, 0x6c, 0x75, 0x3b, 0x66, 0x75, 0x6e,
  0x63, 0x74, 0x69, 0x6f, 0x6e, 0x61, 0x6c, 0x5f, 0x31, 0x2f, 0x63, 0x6f,
  0x6e, 0x76, 0x32, 0x64, 0x5f, 0x32, 0x5f, 0x31, 0x2f, 0x42, 0x69, 0x61,
  0x73, 0x41, 0x64, 0x64, 0x3b, 0x66, 0x75, 0x6e, 0x63, 0x74, 0x69, 0x6f,
  0x6e, 0x61, 0x6c, 0x5f, 0x31, 0x2f, 0x63, 0x6f, 0x6e, 0x76, 0x32, 0x64,
  0x5f, 0x32, 0x5f, 0x31, 0x2f, 0x63, 0x6f, 0x6e, 0x76, 0x6f, 0x6c, 0x75,
  0x74, 0x69, 0x6f, 0x6e, 0x3b, 0x66, 0x75, 0x6e, 0x63, 0x74, 0x69, 0x6f,
  0x6e, 0x61, 0x6c, 0x5f, 0x31, 0x2f, 0x63, 0x6f, 0x6e, 0x76, 0x32, 0x64,
  0x5f, 0x32, 0x5f, 0x31, 0x2f, 0x53, 0x71, 0x75, 0x65, 0x65, 0x7a, 0x65,
  0x00, 0x00, 0x00, 0x00, 0x04, 0x00, 0x00, 0x00, 0x01, 0x00, 0x00, 0x00,
  0x10, 0x00, 0x00, 0x00, 0x1f, 0x00, 0x00, 0x00, 0x18, 0x00, 0x00, 0x00,
  0xf6, 0xfc, 0xff, 0xff, 0x00, 0x00, 0x00, 0x01, 0x18, 0x00, 0x00, 0x00,
  0x28, 0x00, 0x00, 0x00, 0x44, 0x00, 0x00, 0x00, 0x0f, 0x00, 0x00, 0x00,
  0x00, 0x00, 0x00, 0x09, 0x68, 0x00, 0x00, 0x00, 0x04, 0x00, 0x00, 0x00,
  0xff, 0xff, 0xff, 0xff, 0x10, 0x00, 0x00, 0x00, 0x1f, 0x00, 0x00, 0x00,
  0x10, 0x00, 0x00, 0x00, 0x84, 0xf5, 0xff, 0xff, 0x08, 0x00, 0x00, 0x00,
  0x10, 0x00, 0x00, 0x00, 0x01, 0x00, 0x00, 0x00, 0x80, 0xff, 0xff, 0xff,
  0xff, 0xff, 0xff, 0xff, 0x01, 0x00, 0x00, 0x00, 0xde, 0x1a, 0x26, 0x3d,
  0x28, 0x00, 0x00, 0x00, 0x66, 0x75, 0x6e, 0x63, 0x74, 0x69, 0x6f, 0x6e,
  0x61, 0x6c, 0x5f, 0x31, 0x2f, 0x6d, 0x61, 0x78, 0x5f, 0x70, 0x6f, 0x6f,
  0x6c, 0x69, 0x6e, 0x67, 0x32, 0x64, 0x5f, 0x31, 0x5f, 0x32, 0x2f, 0x4d,
  0x61, 0x78, 0x50, 0x6f, 0x6f, 0x6c, 0x32, 0x64, 0x00, 0x00, 0x00, 0x00,
  0x04, 0x00, 0x00, 0x00, 0x01, 0x00, 0x00, 0x00, 0x10, 0x00, 0x00, 0x00,
  0x1f, 0x00, 0x00, 0x00, 0x10, 0x00, 0x00, 0x00, 0x8e, 0xfd, 0xff, 0xff,
  0x00, 0x00, 0x00, 0x01, 0x18, 0x00, 0x00, 0x00, 0x28, 0x00, 0x00, 0x00,
  0x44, 0x00, 0x00, 0x00, 0x0e, 0x00, 0x00, 0x00, 0x00, 0x00, 0x00, 0x09,
  0xc0, 0x00, 0x00, 0x00, 0x04, 0x00, 0x00, 0x00, 0xff, 0xff, 0xff, 0xff,
  0x20, 0x00, 0x00, 0x00, 0x3e, 0x00, 0x00, 0x00, 0x10, 0x00, 0x00, 0x00,
  0x1c, 0xf6, 0xff, 0xff, 0x08, 0x00, 0x00, 0x00, 0x10, 0x00, 0x00, 0x00,
  0x01, 0x00, 0x00, 0x00, 0x80, 0xff, 0xff, 0xff, 0xff, 0xff, 0xff, 0xff,
  0x01, 0x00, 0x00, 0x00, 0xde, 0x1a, 0x26, 0x3d, 0x80, 0x00, 0x00, 0x00,
  0x66, 0x75, 0x6e, 0x63, 0x74, 0x69, 0x6f, 0x6e, 0x61, 0x6c, 0x5f, 0x31,
  0x2f, 0x63, 0x6f, 0x6e, 0x76, 0x32, 0x64, 0x5f, 0x31, 0x5f, 0x32, 0x2f,
  0x52, 0x65, 0x6c, 0x75, 0x3b, 0x66, 0x75, 0x6e, 0x63, 0x74, 0x69, 0x6f,
  0x6e, 0x61, 0x6c, 0x5f, 0x31, 0x2f, 0x63, 0x6f, 0x6e, 0x76, 0x32, 0x64,
  0x5f, 0x31, 0x5f, 0x32, 0x2f, 0x42, 0x69, 0x61, 0x73, 0x41, 0x64, 0x64,
  0x3b, 0x66, 0x75, 0x6e, 0x63, 0x74, 0x69, 0x6f, 0x6e, 0x61, 0x6c, 0x5f,
  0x31, 0x2f, 0x63, 0x6f, 0x6e, 0x76, 0x32, 0x64, 0x5f, 0x31, 0x5f, 0x32,
  0x2f, 0x63, 0x6f, 0x6e, 0x76, 0x6f, 0x6c, 0x75, 0x74, 0x69, 0x6f, 0x6e,
  0x3b, 0x66, 0x75, 0x6e, 0x63, 0x74, 0x69, 0x6f, 0x6e, 0x61, 0x6c, 0x5f,
  0x31, 0x2f, 0x63, 0x6f, 0x6e, 0x76, 0x32, 0x64, 0x5f, 0x31, 0x5f, 0x32,
  0x2f, 0x53, 0x71, 0x75, 0x65, 0x65, 0x7a, 0x65, 0x00, 0x00, 0x00, 0x00,
  0x04, 0x00, 0x00, 0x00, 0x01, 0x00, 0x00, 0x00, 0x20, 0x00, 0x00, 0x00,
  0x3e, 0x00, 0x00, 0x00, 0x10, 0x00, 0x00, 0x00, 0x7e, 0xfe, 0xff, 0xff,
  0x00, 0x00, 0x00, 0x01, 0x18, 0x00, 0x00, 0x00, 0x28, 0x00, 0x00, 0x00,
  0x48, 0x00, 0x00, 0x00, 0x0d, 0x00, 0x00, 0x00, 0x00, 0x00, 0x00, 0x09,
  0x68, 0x00, 0x00, 0x00, 0x04, 0x00, 0x00, 0x00, 0xff, 0xff, 0xff, 0xff,
  0x20, 0x00, 0x00, 0x00, 0x3e, 0x00, 0x00, 0x00, 0x08, 0x00, 0x00, 0x00,
  0x0c, 0xf7, 0xff, 0xff, 0x08, 0x00, 0x00, 0x00, 0x14, 0x00, 0x00, 0x00,
  0x01, 0x00, 0x00, 0x00, 0x80, 0xff, 0xff, 0xff, 0xff, 0xff, 0xff, 0xff,
  0x00, 0x00, 0x00, 0x00, 0x01, 0x00, 0x00, 0x00, 0xa1, 0x6d, 0xe5, 0x3b,
  0x26, 0x00, 0x00, 0x00, 0x66, 0x75, 0x6e, 0x63, 0x74, 0x69, 0x6f, 0x6e,
  0x61, 0x6c, 0x5f, 0x31, 0x2f, 0x6d, 0x61, 0x78, 0x5f, 0x70, 0x6f, 0x6f,
  0x6c, 0x69, 0x6e, 0x67, 0x32, 0x64, 0x5f, 0x31, 0x2f, 0x4d, 0x61, 0x78,
  0x50, 0x6f, 0x6f, 0x6c, 0x32, 0x64, 0x00, 0x00, 0x04, 0x00, 0x00, 0x00,
  0x01, 0x00, 0x00, 0x00, 0x20, 0x00, 0x00, 0x00, 0x3e, 0x00, 0x00, 0x00,
  0x08, 0x00, 0x00, 0x00, 0x16, 0xff, 0xff, 0xff, 0x00, 0x00, 0x00, 0x01,
  0x18, 0x00, 0x00, 0x00, 0x28, 0x00, 0x00, 0x00, 0x44, 0x00, 0x00, 0x00,
  0x0c, 0x00, 0x00, 0x00, 0x00, 0x00, 0x00, 0x09, 0xb8, 0x00, 0x00, 0x00,
  0x04, 0x00, 0x00, 0x00, 0xff, 0xff, 0xff, 0xff, 0x40, 0x00, 0x00, 0x00,
  0x7c, 0x00, 0x00, 0x00, 0x08, 0x00, 0x00, 0x00, 0xa4, 0xf7, 0xff, 0xff,
  0x08, 0x00, 0x00, 0x00, 0x10, 0x00, 0x00, 0x00, 0x01, 0x00, 0x00, 0x00,
  0x80, 0xff, 0xff, 0xff, 0xff, 0xff, 0xff, 0xff, 0x01, 0x00, 0x00, 0x00,
  0xa1, 0x6d, 0xe5, 0x3b, 0x79, 0x00, 0x00, 0x00, 0x66, 0x75, 0x6e, 0x63,
  0x74, 0x69, 0x6f, 0x6e, 0x61, 0x6c, 0x5f, 0x31, 0x2f, 0x63, 0x6f, 0x6e,
  0x76, 0x32, 0x64, 0x5f, 0x31, 0x2f, 0x52, 0x65, 0x6c, 0x75, 0x3b, 0x66,
  0x75, 0x6e, 0x63, 0x74, 0x69, 0x6f, 0x6e, 0x61, 0x6c, 0x5f, 0x31, 0x2f,
  0x63, 0x6f, 0x6e, 0x76, 0x32, 0x64, 0x5f, 0x31, 0x2f, 0x42, 0x69, 0x61,
  0x73, 0x41, 0x64, 0x64, 0x3b, 0x66, 0x75, 0x6e, 0x63, 0x74, 0x69, 0x6f,
  0x6e, 0x61, 0x6c, 0x5f, 0x31, 0x2f, 0x63, 0x6f, 0x6e, 0x76, 0x32, 0x64,
  0x5f, 0x31, 0x2f, 0x63, 0x6f, 0x6e, 0x76, 0x6f, 0x6c, 0x75, 0x74, 0x69,
  0x6f, 0x6e, 0x3b, 0x66, 0x75, 0x6e, 0x63, 0x74, 0x69, 0x6f, 0x6e, 0x61,
  0x6c, 0x5f, 0x31, 0x2f, 0x63, 0x6f, 0x6e, 0x76, 0x32, 0x64, 0x5f, 0x31,
  0x2f, 0x53, 0x71, 0x75, 0x65, 0x65, 0x7a, 0x65, 0x31, 0x00, 0x00, 0x00,
  0x04, 0x00, 0x00, 0x00, 0x01, 0x00, 0x00, 0x00, 0x40, 0x00, 0x00, 0x00,
  0x7c, 0x00, 0x00, 0x00, 0x08, 0x00, 0x00, 0x00, 0x00, 0x00, 0x16, 0x00,
  0x20, 0x00, 0x1c, 0x00, 0x1b, 0x00, 0x14, 0x00, 0x10, 0x00, 0x0c, 0x00,
  0x00, 0x00, 0x00, 0x00, 0x08, 0x00, 0x07, 0x00, 0x16, 0x00, 0x00, 0x00,
  0x00, 0x00, 0x00, 0x01, 0x18, 0x00, 0x00, 0x00, 0x28, 0x00, 0x00, 0x00,
  0x48, 0x00, 0x00, 0x00, 0x0b, 0x00, 0x00, 0x00, 0x00, 0x00, 0x00, 0x09,
  0x50, 0x00, 0x00, 0x00, 0x04, 0x00, 0x00, 0x00, 0xff, 0xff, 0xff, 0xff,
  0x40, 0x00, 0x00, 0x00, 0x7c, 0x00, 0x00, 0x00, 0x01, 0x00, 0x00, 0x00,
  0xa4, 0xf8, 0xff, 0xff, 0x08, 0x00, 0x00, 0x00, 0x14, 0x00, 0x00, 0x00,
  0x01, 0x00, 0x00, 0x00, 0x80, 0xff, 0xff, 0xff, 0xff, 0xff, 0xff, 0xff,
  0x00, 0x00, 0x00, 0x00, 0x01, 0x00, 0x00, 0x00, 0x81, 0x80, 0x80, 0x3b,
  0x0c, 0x00, 0x00, 0x00, 0x74, 0x66, 0x6c, 0x2e, 0x71, 0x75, 0x61, 0x6e,
  0x74, 0x69, 0x7a, 0x65, 0x00, 0x00, 0x00, 0x00, 0x04, 0x00, 0x00, 0x00,
  0x01, 0x00, 0x00, 0x00, 0x40, 0x00, 0x00, 0x00, 0x7c, 0x00, 0x00, 0x00,
  0x01, 0x00, 0x00, 0x00, 0xa2, 0xf8, 0xff, 0xff, 0x00, 0x00, 0x00, 0x01,
  0x14, 0x00, 0x00, 0x00, 0x88, 0x00, 0x00, 0x00, 0x0a, 0x00, 0x00, 0x00,
  0x00, 0x00, 0x00, 0x09, 0x94, 0x00, 0x00, 0x00, 0x0c, 0xf9, 0xff, 0xff,
  0x08, 0x00, 0x00, 0x00, 0x4c, 0x00, 0x00, 0x00, 0x08, 0x00, 0x00, 0x00,
  0x00, 0x00, 0x00, 0x00, 0x00, 0x00, 0x00, 0x00, 0x00, 0x00, 0x00, 0x00,
  0x00, 0x00, 0x00, 0x00, 0x00, 0x00, 0x00, 0x00, 0x00, 0x00, 0x00, 0x00,
  0x00, 0x00, 0x00, 0x00, 0x00, 0x00, 0x00, 0x00, 0x00, 0x00, 0x00, 0x00,
  0x00, 0x00, 0x00, 0x00, 0x00, 0x00, 0x00, 0x00, 0x00, 0x00, 0x00, 0x00,
  0x00, 0x00, 0x00, 0x00, 0x00, 0x00, 0x00, 0x00, 0x00, 0x00, 0x00, 0x00,
  0x00, 0x00, 0x00, 0x00, 0x00, 0x00, 0x00, 0x00, 0x08, 0x00, 0x00, 0x00,
  0xe6, 0xe5, 0x0b, 0x3b, 0x82, 0xd2, 0x6e, 0x3b, 0x5f, 0x56, 0x39, 0x3b,
  0x17, 0x07, 0x9f, 0x3b, 0x80, 0x88, 0x60, 0x3b, 0x4e, 0x94, 0x4a, 0x3b,
  0xf2, 0x16, 0x89, 0x3b, 0x85, 0xdf, 0x42, 0x3b, 0x12, 0x00, 0x00, 0x00,
  0x74, 0x66, 0x6c, 0x2e, 0x70, 0x73, 0x65, 0x75, 0x64, 0x6f, 0x5f, 0x71,
  0x63, 0x6f, 0x6e, 0x73, 0x74, 0x37, 0x00, 0x00, 0x04, 0x00, 0x00, 0x00,
  0x08, 0x00, 0x00, 0x00, 0x03, 0x00, 0x00, 0x00, 0x03, 0x00, 0x00, 0x00,
  0x01, 0x00, 0x00, 0x00, 0x62, 0xf9, 0xff, 0xff, 0x00, 0x00, 0x00, 0x01,
  0x14, 0x00, 0x00, 0x00, 0x84, 0x00, 0x00, 0x00, 0x09, 0x00, 0x00, 0x00,
  0x00, 0x00, 0x00, 0x02, 0x90, 0x00, 0x00, 0x00, 0xcc, 0xf9, 0xff, 0xff,
  0x08, 0x00, 0x00, 0x00, 0x48, 0x00, 0x00, 0x00, 0x08, 0x00, 0x00, 0x00,
  0x00, 0x00, 0x00, 0x00, 0x00, 0x00, 0x00, 0x00, 0x00, 0x00, 0x00, 0x00,
  0x00, 0x00, 0x00, 0x00, 0x00, 0x00, 0x00, 0x00, 0x00, 0x00, 0x00, 0x00,
  0x00, 0x00, 0x00, 0x00, 0x00, 0x00, 0x00, 0x00, 0x00, 0x00, 0x00, 0x00,
  0x00, 0x00, 0x00, 0x00, 0x00, 0x00, 0x00, 0x00, 0x00, 0x00, 0x00, 0x00,
  0x00, 0x00, 0x00, 0x00, 0x00, 0x00, 0x00, 0x00, 0x00, 0x00, 0x00, 0x00,
  0x00, 0x00, 0x00, 0x00, 0x08, 0x00, 0x00, 0x00, 0x59, 0x72, 0x0c, 0x37,
  0x45, 0xc2, 0x6f, 0x37, 0x70, 0x10, 0x3a, 0x37, 0xbe, 0xa6, 0x9f, 0x37,
  0xeb, 0x69, 0x61, 0x37, 0xae, 0x5f, 0x4b, 0x37, 0x93, 0xa0, 0x89, 0x37,
  0x29, 0xa3, 0x43, 0x37, 0x12, 0x00, 0x00, 0x00, 0x74, 0x66, 0x6c, 0x2e,
  0x70, 0x73, 0x65, 0x75, 0x64, 0x6f, 0x5f, 0x71, 0x63, 0x6f, 0x6e, 0x73,
  0x74, 0x36, 0x00, 0x00, 0x01, 0x00, 0x00, 0x00, 0x08, 0x00, 0x00, 0x00,
  0x12, 0xfa, 0xff, 0xff, 0x00, 0x00, 0x00, 0x01, 0x14, 0x00, 0x00, 0x00,
  0xe8, 0x00, 0x00, 0x00, 0x08, 0x00, 0x00, 0x00, 0x00, 0x00, 0x00, 0x09,
  0xf4, 0x00, 0x00, 0x00, 0x7c, 0xfa, 0xff, 0xff, 0x08, 0x00, 0x00, 0x00,
  0x8c, 0x00, 0x00, 0x00, 0x10, 0x00, 0x00, 0x00, 0x00, 0x00, 0x00, 0x00,
  0x00, 0x00, 0x00, 0x00, 0x00, 0x00, 0x00, 0x00, 0x00, 0x00, 0x00, 0x00,
  0x00, 0x00, 0x00, 0x00, 0x00, 0x00, 0x00, 0x00, 0x00, 0x00, 0x00, 0x00,
  0x00, 0x00, 0x00, 0x00, 0x00, 0x00, 0x00, 0x00, 0x00, 0x00, 0x00, 0x00,
  0x00, 0x00, 0x00, 0x00, 0x00, 0x00, 0x00, 0x00, 0x00, 0x00, 0x00, 0x00,
  0x00, 0x00, 0x00, 0x00, 0x00, 0x00, 0x00, 0x00, 0x00, 0x00, 0x00, 0x00,
  0x00, 0x00, 0x00, 0x00, 0x00, 0x00, 0x00, 0x00, 0x00, 0x00, 0x00, 0x00,
  0x00, 0x00, 0x00, 0x00, 0x00, 0x00, 0x00, 0x00, 0x00, 0x00, 0x00, 0x00,
  0x00, 0x00, 0x00, 0x00, 0x00, 0x00, 0x00, 0x00, 0x00, 0x00, 0x00, 0x00,
  0x00, 0x00, 0x00, 0x00, 0x00, 0x00, 0x00, 0x00, 0x00, 0x00, 0x00, 0x00,
  0x00, 0x00, 0x00, 0x00, 0x00, 0x00, 0x00, 0x00, 0x00, 0x00, 0x00, 0x00,
  0x00, 0x00, 0x00, 0x00, 0x00, 0x00, 0x00, 0x00, 0x10, 0x00, 0x00, 0x00,
  0x18, 0x13, 0xfd, 0x3b, 0xfe, 0x5c, 0x51, 0x3c, 0x7c, 0x6e, 0x06, 0x3c,
  0x06, 0xe9, 0x40, 0x3b, 0x91, 0x7b, 0x4b, 0x3c, 0x58, 0x58, 0x85, 0x3c,
  0x1f, 0x35, 0xf5, 0x3b, 0x43, 0x1d, 0xb2, 0x3b, 0x0f, 0x04, 0x94, 0x3b,
  0x28, 0x7a, 0x46, 0x3b, 0xb3, 0x5e, 0x01, 0x3c, 0x4a, 0xee, 0x08, 0x3c,
  0x17, 0xe6, 0xc3, 0x3b, 0x00, 0x93, 0x27, 0x3c, 0xfd, 0xdc, 0xb5, 0x3b,
  0xd6, 0x6b, 0x60, 0x3c, 0x12, 0x00, 0x00, 0x00, 0x74, 0x66, 0x6c, 0x2e,
  0x70, 0x73, 0x65, 0x75, 0x64, 0x6f, 0x5f, 0x71, 0x63, 0x6f, 0x6e, 0x73,
  0x74, 0x35, 0x00, 0x00, 0x04, 0x00, 0x00, 0x00, 0x10, 0x00, 0x00, 0x00,
  0x03, 0x00, 0x00, 0x00, 0x03, 0x00, 0x00, 0x00, 0x08, 0x00, 0x00, 0x00,
  0x32, 0xfb, 0xff, 0xff, 0x00, 0x00, 0x00, 0x01, 0x14, 0x00, 0x00, 0x00,
  0xe4, 0x00, 0x00, 0x00, 0x07, 0x00, 0x00, 0x00, 0x00, 0x00, 0x00, 0x02,
  0xf0, 0x00, 0x00, 0x00, 0x9c, 0xfb, 0xff, 0xff, 0x08, 0x00, 0x00, 0x00,
  0x88, 0x00, 0x00, 0x00, 0x10, 0x00, 0x00, 0x00, 0x00, 0x00, 0x00, 0x00,
  0x00, 0x00, 0x00, 0x00, 0x00, 0x00, 0x00, 0x00, 0x00, 0x00, 0x00, 0x00,
  0x00, 0x00, 0x00, 0x00, 0x00, 0x00, 0x00, 0x00, 0x00, 0x00, 0x00, 0x00,
  0x00, 0x00, 0x00, 0x00, 0x00, 0x00, 0x00, 0x00, 0x00, 0x00, 0x00, 0x00,
  0x00, 0x00, 0x00, 0x00, 0x00, 0x00, 0x00, 0x00, 0x00, 0x00, 0x00, 0x00,
  0x00, 0x00, 0x00, 0x00, 0x00, 0x00, 0x00, 0x00, 0x00, 0x00, 0x00, 0x00,
  0x00, 0x00, 0x00, 0x00, 0x00, 0x00, 0x00, 0x00, 0x00, 0x00, 0x00, 0x00,
  0x00, 0x00, 0x00, 0x00, 0x00, 0x00, 0x00, 0x00, 0x00, 0x00, 0x00, 0x00,
  0x00, 0x00, 0x00, 0x00, 0x00, 0x00, 0x00, 0x00, 0x00, 0x00, 0x00, 0x00,
  0x00, 0x00, 0x00, 0x00, 0x00, 0x00, 0x00, 0x00, 0x00, 0x00, 0x00, 0x00,
  0x00, 0x00, 0x00, 0x00, 0x00, 0x00, 0x00, 0x00, 0x00, 0x00, 0x00, 0x00,
  0x00, 0x00, 0x00, 0x00, 0x10, 0x00, 0x00, 0x00, 0x75, 0xce, 0x62, 0x38,
  0xd7, 0xa1, 0xbb, 0x38, 0xcd, 0xf4, 0x70, 0x38, 0x0f, 0xe3, 0xac, 0x37,
  0xac, 0x5c, 0xb6, 0x38, 0x42, 0x02, 0xef, 0x38, 0x87, 0xc1, 0x5b, 0x38,
  0x73, 0xa0, 0x1f, 0x38, 0x04, 0xa7, 0x04, 0x38, 0x45, 0xe0, 0xb1, 0x37,
  0x3a, 0xe2, 0x67, 0x38, 0x98, 0x6f, 0x75, 0x38, 0xb7, 0x90, 0x2f, 0x38,
  0x42, 0x2e, 0x96, 0x38, 0x90, 0xfc, 0x22, 0x38, 0x91, 0x20, 0xc9, 0x38,
  0x12, 0x00, 0x00, 0x00, 0x74, 0x66, 0x6c, 0x2e, 0x70, 0x73, 0x65, 0x75,
  0x64, 0x6f, 0x5f, 0x71, 0x63, 0x6f, 0x6e, 0x73, 0x74, 0x34, 0x00, 0x00,
  0x01, 0x00, 0x00, 0x00, 0x10, 0x00, 0x00, 0x00, 0x42, 0xfc, 0xff, 0xff,
  0x00, 0x00, 0x00, 0x01, 0x14, 0x00, 0x00, 0x00, 0x48, 0x01, 0x00, 0x00,
  0x06, 0x00, 0x00, 0x00, 0x00, 0x00, 0x00, 0x09, 0x54, 0x01, 0x00, 0x00,
  0xac, 0xfc, 0xff, 0xff, 0x08, 0x00, 0x00, 0x00, 0xcc, 0x00, 0x00, 0x00,
  0x18, 0x00, 0x00, 0x00, 0x00, 0x00, 0x00, 0x00, 0x00, 0x00, 0x00, 0x00,
  0x00, 0x00, 0x00, 0x00, 0x00, 0x00, 0x00, 0x00, 0x00, 0x00, 0x00, 0x00,
  0x00, 0x00, 0x00, 0x00, 0x00, 0x00, 0x00, 0x00, 0x00, 0x00, 0x00, 0x00,
  0x00, 0x00, 0x00, 0x00, 0x00, 0x00, 0x00, 0x00, 0x00, 0x00, 0x00, 0x00,
  0x00, 0x00, 0x00, 0x00, 0x00, 0x00, 0x00, 0x00, 0x00, 0x00, 0x00, 0x00,
  0x00, 0x00, 0x00, 0x00, 0x00, 0x00, 0x00, 0x00, 0x00, 0x00, 0x00, 0x00,
  0x00, 0x00, 0x00, 0x00, 0x00, 0x00, 0x00, 0x00, 0x00, 0x00, 0x00, 0x00,
  0x00, 0x00, 0x00, 0x00, 0x00, 0x00, 0x00, 0x00, 0x00, 0x00, 0x00, 0x00,
  0x00, 0x00, 0x00, 0x00, 0x00, 0x00, 0x00, 0x00, 0x00, 0x00, 0x00, 0x00,
  0x00, 0x00, 0x00, 0x00, 0x00, 0x00, 0x00, 0x00, 0x00, 0x00, 0x00, 0x00,
  0x00, 0x00, 0x00, 0x00, 0x00, 0x00, 0x00, 0x00, 0x00, 0x00, 0x00, 0x00,
  0x00, 0x00, 0x00, 0x00, 0x00, 0x00, 0x00, 0x00, 0x00, 0x00, 0x00, 0x00,
  0x00, 0x00, 0x00, 0x00, 0x00, 0x00, 0x00, 0x00, 0x00, 0x00, 0x00, 0x00,
  0x00, 0x00, 0x00, 0x00, 0x00, 0x00, 0x00, 0x00, 0x00, 0x00, 0x00, 0x00,
  0x00, 0x00, 0x00, 0x00, 0x00, 0x00, 0x00, 0x00, 0x00, 0x00, 0x00, 0x00,
  0x00, 0x00, 0x00, 0x00, 0x00, 0x00, 0x00, 0x00, 0x00, 0x00, 0x00, 0x00,
  0x00, 0x00, 0x00, 0x00, 0x00, 0x00, 0x00, 0x00, 0x18, 0x00, 0x00, 0x00,
  0x97, 0x98, 0x86, 0x3b, 0x50, 0x30, 0x0a, 0x3b, 0x03, 0x6c, 0x3b, 0x3b,
  0x9c, 0xba, 0x25, 0x3c, 0xdc, 0xbc, 0x89, 0x3b, 0x73, 0x80, 0xa1, 0x3b,
  0x9b, 0x6d, 0x60, 0x3b, 0x44, 0xe4, 0x82, 0x3b, 0x59, 0x26, 0x54, 0x3c,
  0x6e, 0x43, 0x37, 0x3c, 0x9a, 0x46, 0xdf, 0x3b, 0x33, 0xaf, 0xba, 0x3b,
  0xcd, 0x87, 0x07, 0x3b, 0xcd, 0xd0, 0x47, 0x3c, 0xf7, 0x05, 0xa1, 0x3b,
  0xb9, 0xd0, 0x16, 0x3c, 0x1c, 0x45, 0x96, 0x3b, 0x80, 0x70, 0xa5, 0x3b,
  0x3d, 0xf1, 0x6a, 0x3c, 0x55, 0x11, 0x8d, 0x3b, 0x71, 0x28, 0x64, 0x3c,
  0xa1, 0x9d, 0xa2, 0x3b, 0x9c, 0xb4, 0x79, 0x3b, 0x8e, 0x6e, 0xe6, 0x3a,
  0x12, 0x00, 0x00, 0x00, 0x74, 0x66, 0x6c, 0x2e, 0x70, 0x73, 0x65, 0x75,
  0x64, 0x6f, 0x5f, 0x71, 0x63, 0x6f, 0x6e, 0x73, 0x74, 0x33, 0x00, 0x00,
  0x04, 0x00, 0x00, 0x00, 0x18, 0x00, 0x00, 0x00, 0x03, 0x00, 0x00, 0x00,
  0x03, 0x00, 0x00, 0x00, 0x10, 0x00, 0x00, 0x00, 0xc2, 0xfd, 0xff, 0xff,
  0x00, 0x00, 0x00, 0x01, 0x14, 0x00, 0x00, 0x00, 0x44, 0x01, 0x00, 0x00,
  0x05, 0x00, 0x00, 0x00, 0x00, 0x00, 0x00, 0x02, 0x50, 0x01, 0x00, 0x00,
  0x2c, 0xfe, 0xff, 0xff, 0x08, 0x00, 0x00, 0x00, 0xc8, 0x00, 0x00, 0x00,
  0x18, 0x00, 0x00, 0x00, 0x00, 0x00, 0x00, 0x00, 0x00, 0x00, 0x00, 0x00,
  0x00, 0x00, 0x00, 0x00, 0x00, 0x00, 0x00, 0x00, 0x00, 0x00, 0x00, 0x00,
  0x00, 0x00, 0x00, 0x00, 0x00, 0x00, 0x00, 0x00, 0x00, 0x00, 0x00, 0x00,
  0x00, 0x00, 0x00, 0x00, 0x00, 0x00, 0x00, 0x00, 0x00, 0x00, 0x00, 0x00,
  0x00, 0x00, 0x00, 0x00, 0x00, 0x00, 0x00, 0x00, 0x00, 0x00, 0x00, 0x00,
  0x00, 0x00, 0x00, 0x00, 0x00, 0x00, 0x00, 0x00, 0x00, 0x00, 0x00, 0x00,
  0x00, 0x00, 0x00, 0x00, 0x00, 0x00, 0x00, 0x00, 0x00, 0x00, 0x00, 0x00,
  0x00, 0x00, 0x00, 0x00, 0x00, 0x00, 0x00, 0x00, 0x00, 0x00, 0x00, 0x00,
  0x00, 0x00, 0x00, 0x00, 0x00, 0x00, 0x00, 0x00, 0x00, 0x00, 0x00, 0x00,
  0x00, 0x00, 0x00, 0x00, 0x00, 0x00, 0x00, 0x00, 0x00, 0x00, 0x00, 0x00,
  0x00, 0x00, 0x00, 0x00, 0x00, 0x00, 0x00, 0x00, 0x00, 0x00, 0x00, 0x00,
  0x00, 0x00, 0x00, 0x00, 0x00, 0x00, 0x00, 0x00, 0x00, 0x00, 0x00, 0x00,
  0x00, 0x00, 0x00, 0x00, 0x00, 0x00, 0x00, 0x00, 0x00, 0x00, 0x00, 0x00,
  0x00, 0x00, 0x00, 0x00, 0x00, 0x00, 0x00, 0x00, 0x00, 0x00, 0x00, 0x00,
  0x00, 0x00, 0x00, 0x00, 0x00, 0x00, 0x00, 0x00, 0x00, 0x00, 0x00, 0x00,
  0x00, 0x00, 0x00, 0x00, 0x00, 0x00, 0x00, 0x00, 0x00, 0x00, 0x00, 0x00,
  0x00, 0x00, 0x00, 0x00, 0x18, 0x00, 0x00, 0x00, 0x24, 0xaa, 0x2e, 0x39,
  0xa9, 0x53, 0xb3, 0x38, 0x6b, 0x37, 0xf3, 0x38, 0xcc, 0x10, 0xd7, 0x39,
  0xd7, 0xbd, 0x32, 0x39, 0x7b, 0x94, 0x51, 0x39, 0xa0, 0x9e, 0x11, 0x39,
  0x82, 0xdb, 0x29, 0x39, 0x22, 0xa7, 0x09, 0x3a, 0xea, 0xd1, 0xed, 0x39,
  0x37, 0xdf, 0x90, 0x39, 0x66, 0x42, 0x72, 0x39, 0x91, 0xe0, 0xaf, 0x38,
  0x5d, 0xa6, 0x01, 0x3a, 0x89, 0xf5, 0x50, 0x39, 0x58, 0xb6, 0xc3, 0x39,
  0x2b, 0x01, 0x43, 0x39, 0xa0, 0xb0, 0x56, 0x39, 0x16, 0x71, 0x18, 0x3a,
  0x16, 0x10, 0x37, 0x39, 0x2b, 0x0a, 0x14, 0x3a, 0x8f, 0x06, 0x53, 0x39,
  0x52, 0x05, 0x22, 0x39, 0xdf, 0x83, 0x95, 0x38, 0x12, 0x00, 0x00, 0x00,
  0x74, 0x66, 0x6c, 0x2e, 0x70, 0x73, 0x65, 0x75, 0x64, 0x6f, 0x5f, 0x71,
  0x63, 0x6f, 0x6e, 0x73, 0x74, 0x32, 0x00, 0x00, 0x01, 0x00, 0x00, 0x00,
  0x18, 0x00, 0x00, 0x00, 0x32, 0xff, 0xff, 0xff, 0x00, 0x00, 0x00, 0x01,
  0x14, 0x00, 0x00, 0x00, 0x34, 0x00, 0x00, 0x00, 0x04, 0x00, 0x00, 0x00,
  0x00, 0x00, 0x00, 0x09, 0x40, 0x00, 0x00, 0x00, 0x9c, 0xff, 0xff, 0xff,
  0x08, 0x00, 0x00, 0x00, 0x14, 0x00, 0x00, 0x00, 0x01, 0x00, 0x00, 0x00,
  0x00, 0x00, 0x00, 0x00, 0x00, 0x00, 0x00, 0x00, 0x00, 0x00, 0x00, 0x00,
  0x01, 0x00, 0x00, 0x00, 0x33, 0x89, 0xd5, 0x3c, 0x12, 0x00, 0x00, 0x00,
  0x74, 0x66, 0x6c, 0x2e, 0x70, 0x73, 0x65, 0x75, 0x64, 0x6f, 0x5f, 0x71,
  0x63, 0x6f, 0x6e, 0x73, 0x74, 0x31, 0x00, 0x00, 0x02, 0x00, 0x00, 0x00,
  0x02, 0x00, 0x00, 0x00, 0x18, 0x00, 0x00, 0x00, 0x96, 0xff, 0xff, 0xff,
  0x00, 0x00, 0x00, 0x01, 0x20, 0x00, 0x00, 0x00, 0x3c, 0x00, 0x00, 0x00,
  0x03, 0x00, 0x00, 0x00, 0x00, 0x00, 0x00, 0x02, 0x48, 0x00, 0x00, 0x00,
  0x0c, 0x00, 0x0c, 0x00, 0x00, 0x00, 0x00, 0x00, 0x08, 0x00, 0x04, 0x00,
  0x0c, 0x00, 0x00, 0x00, 0x08, 0x00, 0x00, 0x00, 0x10, 0x00, 0x00, 0x00,
  0x01, 0x00, 0x00, 0x00, 0x00, 0x00, 0x00, 0x00, 0x00, 0x00, 0x00, 0x00,
  0x01, 0x00, 0x00, 0x00, 0xa2, 0xae, 0xf7, 0x39, 0x11, 0x00, 0x00, 0x00,
  0x74, 0x66, 0x6c, 0x2e, 0x70, 0x73, 0x65, 0x75, 0x64, 0x6f, 0x5f, 0x71,
  0x63, 0x6f, 0x6e, 0x73, 0x74, 0x00, 0x00, 0x00, 0x01, 0x00, 0x00, 0x00,
  0x02, 0x00, 0x00, 0x00, 0x00, 0x00, 0x16, 0x00, 0x1c, 0x00, 0x18, 0x00,
  0x17, 0x00, 0x10, 0x00, 0x0c, 0x00, 0x08, 0x00, 0x00, 0x00, 0x00, 0x00,
  0x00, 0x00, 0x07, 0x00, 0x16, 0x00, 0x00, 0x00, 0x00, 0x00, 0x00, 0x01,
  0x14, 0x00, 0x00, 0x00, 0x14, 0x00, 0x00, 0x00, 0x02, 0x00, 0x00, 0x00,
  0x00, 0x00, 0x00, 0x02, 0x1c, 0x00, 0x00, 0x00, 0x98, 0xff, 0xff, 0xff,
  0x0e, 0x00, 0x00, 0x00, 0x61, 0x72, 0x69, 0x74, 0x68, 0x2e, 0x63, 0x6f,
  0x6e, 0x73, 0x74, 0x61, 0x6e, 0x74, 0x00, 0x00, 0x01, 0x00, 0x00, 0x00,
  0x02, 0x00, 0x00, 0x00, 0x00, 0x00, 0x16, 0x00, 0x1c, 0x00, 0x18, 0x00,
  0x00, 0x00, 0x14, 0x00, 0x10, 0x00, 0x0c, 0x00, 0x00, 0x00, 0x00, 0x00,
  0x08, 0x00, 0x07, 0x00, 0x16, 0x00, 0x00, 0x00, 0x00, 0x00, 0x00, 0x01,
  0x14, 0x00, 0x00, 0x00, 0x28, 0x00, 0x00, 0x00, 0x28, 0x00, 0x00, 0x00,
  0x01, 0x00, 0x00, 0x00, 0x44, 0x00, 0x00, 0x00, 0x04, 0x00, 0x00, 0x00,
  0xff, 0xff, 0xff, 0xff, 0x40, 0x00, 0x00, 0x00, 0x7c, 0x00, 0x00, 0x00,
  0x01, 0x00, 0x00, 0x00, 0x04, 0x00, 0x04, 0x00, 0x04, 0x00, 0x00, 0x00,
  0x1e, 0x00, 0x00, 0x00, 0x73, 0x65, 0x72, 0x76, 0x69, 0x6e, 0x67, 0x5f,
  0x64, 0x65, 0x66, 0x61, 0x75, 0x6c, 0x74, 0x5f, 0x6b, 0x65, 0x72, 0x61,
  0x73, 0x5f, 0x74, 0x65, 0x6e, 0x73, 0x6f, 0x72, 0x3a, 0x30, 0x00, 0x00,
  0x04, 0x00, 0x00, 0x00, 0x01, 0x00, 0x00, 0x00, 0x40, 0x00, 0x00, 0x00,
  0x7c, 0x00, 0x00, 0x00, 0x01, 0x00, 0x00, 0x00, 0x07, 0x00, 0x00, 0x00,
  0x94, 0x00, 0x00, 0x00, 0x74, 0x00, 0x00, 0x00, 0x54, 0x00, 0x00, 0x00,
  0x40, 0x00, 0x00, 0x00, 0x2c, 0x00, 0x00, 0x00, 0x18, 0x00, 0x00, 0x00,
  0x04, 0x00, 0x00, 0x00, 0xb0, 0xff, 0xff, 0xff, 0x06, 0x00, 0x00, 0x00,
  0x02, 0x00, 0x00, 0x00, 0x00, 0x00, 0x00, 0x06, 0xc0, 0xff, 0xff, 0xff,
  0x19, 0x00, 0x00, 0x00, 0x02, 0x00, 0x00, 0x00, 0x00, 0x00, 0x00, 0x19,
  0xd0, 0xff, 0xff, 0xff, 0x09, 0x00, 0x00, 0x00, 0x04, 0x00, 0x00, 0x00,
  0x00, 0x00, 0x00, 0x09, 0xe0, 0xff, 0xff, 0xff, 0x28, 0x00, 0x00, 0x00,
  0x02, 0x00, 0x00, 0x00, 0x00, 0x00, 0x00, 0x28, 0xf0, 0xff, 0xff, 0xff,
  0x11, 0x00, 0x00, 0x00, 0x02, 0x00, 0x00, 0x00, 0x00, 0x00, 0x00, 0x11,
  0x0c, 0x00, 0x10, 0x00, 0x0f, 0x00, 0x00, 0x00, 0x08, 0x00, 0x04, 0x00,
  0x0c, 0x00, 0x00, 0x00, 0x03, 0x00, 0x00, 0x00, 0x03, 0x00, 0x00, 0x00,
  0x00, 0x00, 0x00, 0x03, 0x0c, 0x00, 0x0c, 0x00, 0x0b, 0x00, 0x00, 0x00,
  0x00, 0x00, 0x04, 0x00, 0x0c, 0x00, 0x00, 0x00, 0x72, 0x00, 0x00, 0x00,
  0x00, 0x00, 0x00, 0x72
};
const unsigned int tiny_cnn_model_big_tflite_len = 10672;
